<unk>	0
<s>	0
</s>	0
[PAD]	0
[BOS]	0
[EOS]	0
[UNK]	0
▁t	-0
he	-1
▁a	-2
▁s	-3
▁w	-4
nd	-5
▁the	-6
ed	-7
▁to	-8
▁b	-9
▁and	-10
▁h	-11
in	-12
▁f	-13
▁wa	-14
▁T	-15
it	-16
re	-17
ou	-18
▁l	-19
▁d	-20
▁c	-21
▁he	-22
▁p	-23
ay	-24
▁m	-25
er	-26
▁was	-27
om	-28
im	-29
on	-30
il	-31
▁The	-32
id	-33
is	-34
at	-35
ar	-36
▁sa	-37
▁n	-38
▁g	-39
ing	-40
▁ha	-41
▁S	-42
en	-43
an	-44
or	-45
le	-46
ll	-47
▁L	-48
▁th	-49
ot	-50
ily	-51
▁her	-52
▁it	-53
▁"	-54
am	-55
ir	-56
et	-57
▁Lily	-58
▁u	-59
▁O	-60
▁H	-61
▁On	-62
▁in	-63
ut	-64
▁pl	-65
ri	-66
▁Tim	-67
ow	-68
▁day	-69
▁be	-70
ver	-71
ce	-72
ith	-73
ig	-74
▁o	-75
▁with	-76
▁said	-77
▁play	-78
▁She	-79
pp	-80
ck	-81
ld	-82
▁They	-83
my	-84
▁e	-85
▁his	-86
▁He	-87
oo	-88
▁y	-89
▁st	-90
▁up	-91
▁that	-92
▁r	-93
▁on	-94
ke	-95
ked	-96
st	-97
▁mom	-98
▁she	-99
▁I	-100
ve	-101
nt	-102
itt	-103
very	-104
▁you	-105
▁happ	-106
▁they	-107
end	-108
▁B	-109
ime	-110
▁big	-111
▁fri	-112
se	-113
▁of	-114
▁friend	-115
ittle	-116
▁little	-117
ent	-118
▁time	-119
un	-120
ad	-121
▁had	-122
▁we	-123
▁there	-124
▁so	-125
▁One	-126
her	-127
▁for	-128
all	-129
ould	-130
▁nam	-131
▁want	-132
▁M	-133
▁happy	-134
▁saw	-135
▁named	-136
ved	-137
▁li	-138
▁but	-139
▁very	-140
▁do	-141
▁lo	-142
ch	-143
▁Once	-144
▁ne	-145
▁Timmy	-146
es	-147
▁upon	-148
out	-149
▁k	-150
▁sh	-151
ound	-152
."	-153
ly	-154
▁A	-155
▁not	-156
▁wh	-157
el	-158
ide	-159
ome	-160
ht	-161
al	-162
▁re	-163
▁bo	-164
ter	-165
▁went	-166
▁as	-167
▁an	-168
▁hel	-169
▁friends	-170
▁help	-171
!"	-172
ake	-173
▁too	-174
▁were	-175
▁loved	-176
▁wanted	-177
▁sm	-178
ird	-179
ore	-180
ack	-181
▁bird	-182
irl	-183
▁did	-184
ry	-185
▁girl	-186
▁toy	-187
ra	-188
▁all	-189
ug	-190
ind	-191
▁him	-192
▁It	-193
ur	-194
ame	-195
▁loo	-196
▁could	-197
rom	-198
▁Tom	-199
▁j	-200
▁out	-201
way	-202
get	-203
hen	-204
ted	-205
ec	-206
▁at	-207
▁is	-208
gether	-209
▁kn	-210
▁go	-211
ain	-212
▁se	-213
▁fun	-214
▁together	-215
ard	-216
▁But	-217
ark	-218
ul	-219
ood	-220
ue	-221
▁can	-222
side	-223
▁le	-224
?"	-225
ic	-226
ill	-227
▁tre	-228
ax	-229
▁asked	-230
▁boy	-231
▁sad	-232
hed	-233
ght	-234
▁Max	-235
▁W	-236
ful	-237
▁F	-238
elt	-239
▁ro	-240
▁back	-241
▁star	-242
▁felt	-243
own	-244
▁have	-245
▁them	-246
▁bec	-247
▁ca	-248
other	-249
▁cat	-250
one	-251
▁cl	-252
▁al	-253
▁sc	-254
▁sp	-255
▁found	-256
um	-257
▁their	-258
▁man	-259
▁dog	-260
round	-261
▁played	-262
hing	-263
ro	-264
▁park	-265
ong	-266
ick	-267
▁looked	-268
▁smil	-269
▁car	-270
▁came	-271
▁ball	-272
▁me	-273
▁are	-274
▁started	-275
▁fe	-276
▁fa	-277
▁would	-278
▁like	-279
▁tree	-280
omet	-281
▁new	-282
▁mommy	-283
ss	-284
▁ex	-285
▁ag	-286
ared	-287
▁Ben	-288
ure	-289
▁what	-290
▁didn	-291
ings	-292
ie	-293
▁make	-294
dd	-295
▁somet	-296
▁see	-297
▁no	-298
ny	-299
▁J	-300
ought	-301
▁playing	-302
ade	-303
ried	-304
▁wor	-305
▁some	-306
▁home	-307
op	-308
ice	-309
▁when	-310
ouse	-311
ag	-312
▁mu	-313
▁got	-314
You	-315
▁co	-316
▁made	-317
▁away	-318
▁wal	-319
if	-320
▁smiled	-321
▁then	-322
▁other	-323
▁again	-324
ty	-325
▁la	-326
▁every	-327
▁good	-328
king	-329
ned	-330
▁outside	-331
▁toys	-332
▁find	-333
▁from	-334
ble	-335
au	-336
ave	-337
▁around	-338
ook	-339
▁put	-340
▁fl	-341
ened	-342
ep	-343
▁Sue	-344
ways	-345
,"	-346
ause	-347
▁something	-348
uck	-349
ight	-350
▁always	-351
ally	-352
▁From	-353
▁because	-354
▁lear	-355
▁thought	-356
oud	-357
▁things	-358
▁scared	-359
▁ran	-360
ell	-361
▁liked	-362
▁who	-363
udd	-364
▁sw	-365
▁down	-366
▁Her	-367
▁Sam	-368
▁get	-369
▁kne	-370
as	-371
▁my	-372
▁ab	-373
▁took	-374
ant	-375
▁dec	-376
ret	-377
ust	-378
▁about	-379
ach	-380
▁know	-381
ist	-382
pl	-383
▁eat	-384
▁your	-385
▁ch	-386
▁house	-387
▁told	-388
fter	-389
ited	-390
▁care	-391
▁small	-392
▁knew	-393
ank	-394
ided	-395
▁tried	-396
▁decided	-397
▁any	-398
pped	-399
hat	-400
▁br	-401
▁pr	-402
▁bl	-403
ish	-404
▁Sp	-405
ite	-406
▁bu	-407
▁lot	-408
▁int	-409
▁say	-410
fe	-411
▁You	-412
▁So	-413
▁learned	-414
ous	-415
ile	-416
▁dad	-417
▁exc	-418
▁pret	-419
udden	-420
qu	-421
uddenly	-422
▁ta	-423
▁Spot	-424
▁When	-425
▁v	-426
ise	-427
▁laug	-428
▁sun	-429
▁much	-430
▁more	-431
ers	-432
▁feel	-433
are	-434
ob	-435
▁lived	-436
nder	-437
▁ke	-438
▁box	-439
ive	-440
▁will	-441
ace	-442
▁show	-443
▁po	-444
▁hug	-445
ven	-446
ump	-447
▁Mom	-448
▁into	-449
uc	-450
▁un	-451
▁D	-452
ia	-453
▁one	-454
urp	-455
▁gave	-456
▁Suddenly	-457
▁water	-458
▁need	-459
▁excited	-460
etter	-461
▁inside	-462
▁ho	-463
▁As	-464
ate	-465
oth	-466
ap	-467
ort	-468
▁how	-469
▁room	-470
▁gra	-471
▁tr	-472
▁And	-473
dy	-474
▁pick	-475
▁couldn	-476
▁gre	-477
▁E	-478
▁pe	-479
▁cle	-480
▁if	-481
▁many	-482
▁His	-483
▁take	-484
▁look	-485
▁long	-486
▁pu	-487
our	-488
▁pretty	-489
▁became	-490
▁Mia	-491
urt	-492
▁op	-493
urpr	-494
▁run	-495
▁over	-496
▁sk	-497
iz	-498
▁surpr	-499
▁best	-500
here	-501
▁better	-502
▁bear	-503
bb	-504
lf	-505
▁im	-506
▁than	-507
ised	-508
▁mo	-509
ged	-510
▁red	-511
▁kind	-512
▁just	-513
lew	-514
Th	-515
▁fi	-516
ge	-517
ma	-518
ink	-519
▁str	-520
▁gr	-521
▁flow	-522
iny	-523
imal	-524
▁animal	-525
▁even	-526
Yes	-527
▁sl	-528
▁this	-529
em	-530
▁end	-531
▁fast	-532
▁clean	-533
▁laughed	-534
▁jump	-535
▁careful	-536
▁dre	-537
sed	-538
▁both	-539
ched	-540
▁wat	-541
▁list	-542
▁Bob	-543
▁or	-544
ucy	-545
▁rock	-546
ber	-547
▁nice	-548
ving	-549
▁Lucy	-550
ess	-551
▁After	-552
Can	-553
▁clo	-554
▁tow	-555
▁never	-556
▁imp	-557
▁by	-558
▁says	-559
▁Then	-560
▁under	-561
ion	-562
▁old	-563
▁happened	-564
ct	-565
▁heard	-566
▁fly	-567
▁walked	-568
ine	-569
pec	-570
▁hurt	-571
▁sn	-572
▁safe	-573
ase	-574
▁animals	-575
▁com	-576
▁proud	-577
▁en	-578
ied	-579
▁try	-580
▁ri	-581
▁hand	-582
▁te	-583
igh	-584
▁don	-585
ft	-586
▁col	-587
▁fore	-588
▁sky	-589
orry	-590
▁lots	-591
Thank	-592
▁flew	-593
kay	-594
▁dan	-595
▁while	-596
ara	-597
▁bea	-598
▁fo	-599
▁food	-600
▁fam	-601
▁fish	-602
▁ground	-603
▁stor	-604
▁let	-605
▁ra	-606
▁repl	-607
▁each	-608
oug	-609
illy	-610
▁sorry	-611
▁rem	-612
▁picked	-613
ough	-614
▁pic	-615
▁che	-616
▁ide	-617
▁off	-618
▁its	-619
ies	-620
▁shiny	-621
▁idea	-622
ady	-623
▁We	-624
▁real	-625
▁replied	-626
ex	-627
▁bad	-628
ff	-629
by	-630
imb	-631
▁Benny	-632
▁share	-633
sh	-634
gry	-635
▁come	-636
▁climb	-637
▁tur	-638
▁Jack	-639
▁Sara	-640
ool	-641
ial	-642
▁import	-643
ture	-644
▁way	-645
▁loud	-646
▁spec	-647
more	-648
▁special	-649
▁anymore	-650
▁beaut	-651
ning	-652
▁unt	-653
▁bro	-654
▁important	-655
self	-656
▁family	-657
rm	-658
▁wind	-659
▁ad	-660
nn	-661
▁thanked	-662
▁still	-663
▁dra	-664
▁hugged	-665
▁hard	-666
and	-667
▁until	-668
▁surprised	-669
iful	-670
▁beautiful	-671
▁tal	-672
ild	-673
▁Ann	-674
▁helped	-675
eet	-676
▁love	-677
arden	-678
▁garden	-679
▁forest	-680
pected	-681
ized	-682
▁being	-683
▁near	-684
▁qu	-685
ip	-686
ople	-687
▁tw	-688
hy	-689
▁gl	-690
expected	-691
▁unexpected	-692
ummy	-693
▁fell	-694
vor	-695
▁walk	-696
▁picture	-697
▁con	-698
▁keep	-699
▁cu	-700
▁color	-701
▁after	-702
▁expl	-703
vent	-704
xt	-705
▁In	-706
▁next	-707
▁book	-708
▁people	-709
hes	-710
▁bug	-711
▁favor	-712
▁give	-713
▁favorite	-714
▁showed	-715
▁now	-716
▁cry	-717
▁fin	-718
▁N	-719
▁par	-720
▁high	-721
ember	-722
▁store	-723
unny	-724
▁ma	-725
▁going	-726
▁Anna	-727
▁far	-728
▁cre	-729
▁app	-730
ished	-731
▁should	-732
ak	-733
▁mag	-734
ock	-735
▁call	-736
▁listen	-737
▁great	-738
▁cake	-739
▁am	-740
▁stay	-741
▁Amy	-742
fore	-743
▁remember	-744
ary	-745
▁lost	-746
▁rain	-747
▁squ	-748
▁wo	-749
Let	-750
ull	-751
▁cook	-752
ger	-753
▁bed	-754
▁P	-755
▁jo	-756
▁ac	-757
pt	-758
▁fr	-759
▁bra	-760
▁pa	-761
▁own	-762
rel	-763
▁opened	-764
▁truck	-765
▁butter	-766
▁ever	-767
▁before	-768
▁strong	-769
▁sto	-770
▁flowers	-771
age	-772
▁okay	-773
▁Every	-774
▁blue	-775
▁door	-776
▁fix	-777
▁watch	-778
It	-779
What	-780
▁where	-781
▁worry	-782
▁noise	-783
uff	-784
ater	-785
▁de	-786
▁place	-787
Don	-788
▁realized	-789
les	-790
▁ate	-791
lease	-792
No	-793
▁doll	-794
▁mor	-795
▁wr	-796
bbit	-797
▁boat	-798
▁story	-799
imes	-800
▁advent	-801
eddy	-802
▁magic	-803
▁yummy	-804
▁Let	-805
▁R	-806
▁Billy	-807
Mom	-808
leep	-809
thing	-810
be	-811
▁rabbit	-812
▁met	-813
▁butterf	-814
rog	-815
▁leave	-816
▁wait	-817
▁bunny	-818
▁Jo	-819
▁happily	-820
oon	-821
able	-822
▁tra	-823
▁catch	-824
uch	-825
ting	-826
▁mouse	-827
▁bre	-828
▁dress	-829
owl	-830
so	-831
▁draw	-832
▁mon	-833
irrel	-834
▁Sally	-835
▁also	-836
▁Fin	-837
▁C	-838
▁face	-839
▁jumped	-840
▁stopped	-841
▁squirrel	-842
▁everyone	-843
▁others	-844
▁sing	-845
irst	-846
▁frog	-847
ught	-848
▁called	-849
ens	-850
▁brave	-851
That	-852
▁stick	-853
▁adventure	-854
ane	-855
▁kid	-856
▁sat	-857
▁cont	-858
▁game	-859
▁kept	-860
ious	-861
▁K	-862
▁butterfly	-863
▁needed	-864
▁soon	-865
ndma	-866
ired	-867
led	-868
▁walking	-869
▁use	-870
▁slide	-871
▁warm	-872
▁sometimes	-873
▁right	-874
▁sand	-875
ppy	-876
▁forg	-877
▁pie	-878
▁feeling	-879
oy	-880
▁having	-881
▁pain	-882
▁ey	-883
▁dif	-884
dded	-885
▁thr	-886
▁Mommy	-887
▁rest	-888
uffy	-889
ken	-890
▁angry	-891
▁hear	-892
▁flower	-893
▁night	-894
▁Th	-895
▁remembered	-896
▁work	-897
day	-898
Wow	-899
ol	-900
zy	-901
▁At	-902
ued	-903
▁kids	-904
▁Can	-905
▁ice	-906
▁dis	-907
joy	-908
▁Fl	-909
▁open	-910
ath	-911
▁sure	-912
▁Wh	-913
iced	-914
Look	-915
▁smile	-916
ree	-917
▁mean	-918
▁tri	-919
▁our	-920
▁tired	-921
ange	-922
irt	-923
▁hat	-924
ster	-925
itc	-926
▁us	-927
▁cra	-928
▁soft	-929
▁head	-930
us	-931
▁brother	-932
▁buy	-933
▁fire	-934
▁looking	-935
▁din	-936
▁sleep	-937
▁beh	-938
▁first	-939
▁prom	-940
▁birds	-941
▁del	-942
▁used	-943
▁cr	-944
▁enjoy	-945
▁contin	-946
▁ba	-947
▁clos	-948
ner	-949
▁green	-950
ng	-951
▁wear	-952
▁hole	-953
▁ask	-954
itchen	-955
▁kitchen	-956
▁sound	-957
ount	-958
▁hands	-959
gan	-960
▁nodded	-961
uit	-962
▁lady	-963
▁Do	-964
Hi	-965
▁eyes	-966
▁watched	-967
▁making	-968
▁prin	-969
▁continued	-970
▁party	-971
▁cut	-972
▁mess	-973
▁z	-974
▁duck	-975
▁funny	-976
▁flo	-977
ello	-978
fere	-979
Hello	-980
▁dr	-981
▁differe	-982
▁yell	-983
llow	-984
▁bel	-985
▁town	-986
ident	-987
▁tast	-988
itty	-989
▁cand	-990
▁piece	-991
▁Mr	-992
▁tell	-993
▁mis	-994
▁cried	-995
▁moral	-996
▁acc	-997
que	-998
ient	-999
▁Fluffy	-1000
maz	-1001
▁two	-1002
▁amaz	-1003
ear	-1004
air	-1005
▁pond	-1006
▁noticed	-1007
▁hid	-1008
▁cold	-1009
▁dro	-1010
▁broken	-1011
▁bri	-1012
▁hot	-1013
▁swim	-1014
▁ru	-1015
▁worked	-1016
▁follow	-1017
▁accident	-1018
▁read	-1019
▁ar	-1020
▁turned	-1021
▁race	-1022
▁farm	-1023
ect	-1024
▁cool	-1025
where	-1026
▁trees	-1027
▁hun	-1028
▁different	-1029
▁lion	-1030
▁grandma	-1031
oney	-1032
▁quick	-1033
aybe	-1034
▁Tw	-1035
▁cookies	-1036
▁Kitty	-1037
▁bag	-1038
▁daddy	-1039
▁sweet	-1040
▁talk	-1041
▁pull	-1042
▁please	-1043
We	-1044
▁stop	-1045
▁hair	-1046
▁scary	-1047
▁thing	-1048
reed	-1049
▁hop	-1050
▁behind	-1051
▁think	-1052
▁surprise	-1053
ered	-1054
▁explore	-1055
orn	-1056
▁climbed	-1057
▁song	-1058
▁per	-1059
▁helping	-1060
▁top	-1061
▁tall	-1062
▁Now	-1063
▁cream	-1064
▁Tweet	-1065
hn	-1066
▁dri	-1067
▁grass	-1068
▁move	-1069
▁bar	-1070
▁Later	-1071
▁listened	-1072
▁running	-1073
▁turn	-1074
▁wrong	-1075
aper	-1076
▁John	-1077
▁curi	-1078
▁cars	-1079
▁dark	-1080
▁build	-1081
▁friendly	-1082
▁owner	-1083
▁dinner	-1084
▁cla	-1085
▁sho	-1086
▁curious	-1087
ph	-1088
▁agreed	-1089
▁shared	-1090
▁table	-1091
▁coming	-1092
▁closer	-1093
▁bright	-1094
▁learn	-1095
ced	-1096
▁hungry	-1097
▁floor	-1098
ike	-1099
▁quickly	-1100
oice	-1101
▁another	-1102
ucky	-1103
▁That	-1104
▁dance	-1105
▁dream	-1106
▁swing	-1107
▁block	-1108
▁here	-1109
sy	-1110
▁doing	-1111
▁Sarah	-1112
▁might	-1113
ey	-1114
ign	-1115
▁forgot	-1116
▁teddy	-1117
▁accidentally	-1118
nts	-1119
▁leaves	-1120
▁wet	-1121
▁touch	-1122
▁broke	-1123
▁shar	-1124
key	-1125
▁stuck	-1126
ather	-1127
▁tail	-1128
ards	-1129
lly	-1130
▁brought	-1131
▁smell	-1132
▁hide	-1133
▁underst	-1134
ittens	-1135
▁Just	-1136
▁herself	-1137
Mommy	-1138
Why	-1139
asure	-1140
▁himself	-1141
▁gone	-1142
▁paper	-1143
▁left	-1144
▁wood	-1145
▁finished	-1146
▁pretend	-1147
▁This	-1148
▁promised	-1149
▁why	-1150
▁vis	-1151
▁grate	-1152
▁light	-1153
▁close	-1154
rot	-1155
▁grateful	-1156
icy	-1157
▁candy	-1158
▁fair	-1159
▁ready	-1160
bo	-1161
▁yard	-1162
▁delic	-1163
▁plan	-1164
▁anything	-1165
▁glad	-1166
bye	-1167
▁has	-1168
▁colors	-1169
▁voice	-1170
▁tight	-1171
▁perf	-1172
▁hill	-1173
▁ride	-1174
▁really	-1175
▁owl	-1176
▁through	-1177
▁Finally	-1178
▁Tommy	-1179
▁trying	-1180
av	-1181
ield	-1182
▁puppy	-1183
art	-1184
Oh	-1185
▁wished	-1186
ached	-1187
▁train	-1188
oup	-1189
▁Mittens	-1190
cess	-1191
row	-1192
▁Dad	-1193
oom	-1194
▁hold	-1195
▁window	-1196
▁shout	-1197
▁fall	-1198
▁sunny	-1199
▁balloon	-1200
▁pink	-1201
▁full	-1202
▁snow	-1203
ctor	-1204
pe	-1205
▁began	-1206
▁yellow	-1207
ation	-1208
irty	-1209
▁world	-1210
▁fruit	-1211
bbed	-1212
▁pictures	-1213
gg	-1214
▁dirty	-1215
▁While	-1216
▁ve	-1217
▁been	-1218
isy	-1219
ssed	-1220
set	-1221
▁someone	-1222
▁less	-1223
▁seen	-1224
▁wonder	-1225
▁everywhere	-1226
▁moment	-1227
▁pare	-1228
co	-1229
▁grow	-1230
▁ju	-1231
▁eating	-1232
af	-1233
▁flying	-1234
▁visit	-1235
▁roll	-1236
▁goodbye	-1237
stle	-1238
▁count	-1239
ac	-1240
ask	-1241
▁nest	-1242
▁only	-1243
▁does	-1244
▁blocks	-1245
▁land	-1246
▁sit	-1247
▁set	-1248
avy	-1249
▁bran	-1250
▁pat	-1251
Okay	-1252
▁mus	-1253
▁sear	-1254
▁win	-1255
▁break	-1256
▁ste	-1257
▁name	-1258
▁apple	-1259
▁done	-1260
▁monkey	-1261
▁baby	-1262
amp	-1263
▁happen	-1264
ons	-1265
▁thre	-1266
▁slow	-1267
▁air	-1268
red	-1269
▁reached	-1270
▁mar	-1271
▁pre	-1272
▁comp	-1273
▁books	-1274
▁waited	-1275
▁bit	-1276
thy	-1277
▁laugh	-1278
▁yes	-1279
▁crying	-1280
▁colorful	-1281
▁gent	-1282
▁beach	-1283
▁Em	-1284
▁arm	-1285
orm	-1286
ained	-1287
der	-1288
zz	-1289
▁To	-1290
▁won	-1291
▁plant	-1292
▁held	-1293
▁pen	-1294
ister	-1295
▁carrot	-1296
▁reach	-1297
▁clot	-1298
ries	-1299
os	-1300
▁pus	-1301
▁clothes	-1302
ash	-1303
de	-1304
▁wasn	-1305
▁wise	-1306
ste	-1307
▁sister	-1308
ames	-1309
illed	-1310
▁Everyone	-1311
gon	-1312
▁fight	-1313
ix	-1314
▁towards	-1315
▁cup	-1316
▁pro	-1317
▁mat	-1318
▁upset	-1319
up	-1320
stead	-1321
▁thank	-1322
▁monster	-1323
▁pol	-1324
▁treasure	-1325
▁paint	-1326
▁finally	-1327
▁heavy	-1328
▁parents	-1329
▁music	-1330
Sure	-1331
room	-1332
ance	-1333
▁enjoyed	-1334
▁treat	-1335
▁everything	-1336
▁There	-1337
▁alone	-1338
▁lesson	-1339
▁spl	-1340
▁job	-1341
ower	-1342
▁castle	-1343
▁delicious	-1344
▁bike	-1345
gle	-1346
ott	-1347
▁Bobo	-1348
▁nap	-1349
▁bigger	-1350
▁danger	-1351
▁join	-1352
▁getting	-1353
cle	-1354
▁cloud	-1355
▁followed	-1356
ich	-1357
▁sail	-1358
▁woods	-1359
▁understand	-1360
▁res	-1361
ere	-1362
▁doctor	-1363
ream	-1364
▁child	-1365
▁money	-1366
▁woke	-1367
▁swings	-1368
▁hopped	-1369
ully	-1370
▁arri	-1371
less	-1372
▁spot	-1373
▁games	-1374
▁pot	-1375
▁ele	-1376
llie	-1377
▁wall	-1378
Lily	-1379
▁mix	-1380
▁je	-1381
▁em	-1382
fully	-1383
▁swam	-1384
▁Jane	-1385
▁looks	-1386
▁dry	-1387
▁All	-1388
▁without	-1389
outh	-1390
ast	-1391
▁blew	-1392
bble	-1393
aught	-1394
▁mouth	-1395
▁Bl	-1396
▁gif	-1397
ze	-1398
▁bath	-1399
▁fur	-1400
▁grabbed	-1401
▁bor	-1402
▁bott	-1403
man	-1404
▁must	-1405
▁bite	-1406
▁shouted	-1407
ves	-1408
▁field	-1409
▁snack	-1410
▁river	-1411
▁arrived	-1412
▁pulled	-1413
ins	-1414
▁caught	-1415
▁pushed	-1416
▁rel	-1417
oc	-1418
cy	-1419
▁hit	-1420
▁heal	-1421
▁tower	-1422
▁leg	-1423
th	-1424
▁deep	-1425
▁pet	-1426
unch	-1427
iss	-1428
▁explained	-1429
▁word	-1430
This	-1431
▁tiny	-1432
▁stayed	-1433
chool	-1434
▁pieces	-1435
▁What	-1436
▁waved	-1437
aisy	-1438
▁chair	-1439
▁gu	-1440
▁Blue	-1441
fort	-1442
▁threw	-1443
▁dangerous	-1444
▁school	-1445
let	-1446
▁side	-1447
▁bee	-1448
▁black	-1449
▁wouldn	-1450
▁white	-1451
Do	-1452
▁able	-1453
▁carefully	-1454
▁Soon	-1455
▁es	-1456
cket	-1457
▁sea	-1458
▁silly	-1459
eared	-1460
▁Sammy	-1461
▁free	-1462
▁worried	-1463
gged	-1464
▁perfect	-1465
▁el	-1466
iet	-1467
▁king	-1468
ence	-1469
▁Inside	-1470
▁clapped	-1471
ila	-1472
▁branch	-1473
▁fox	-1474
itting	-1475
▁blank	-1476
▁key	-1477
▁cour	-1478
▁quiet	-1479
▁adventures	-1480
come	-1481
▁else	-1482
ocked	-1483
▁ear	-1484
▁blanket	-1485
▁enough	-1486
▁amazed	-1487
▁course	-1488
ated	-1489
pping	-1490
▁bowl	-1491
▁mother	-1492
▁today	-1493
▁talked	-1494
▁Lila	-1495
ier	-1496
oun	-1497
▁drink	-1498
▁que	-1499
▁princess	-1500
▁dropped	-1501
▁fairy	-1502
▁soup	-1503
▁sharing	-1504
▁farmer	-1505
▁sec	-1506
▁sees	-1507
▁bat	-1508
▁sick	-1509
▁att	-1510
▁sandw	-1511
ord	-1512
▁tom	-1513
▁bring	-1514
phant	-1515
▁danced	-1516
▁gi	-1517
ek	-1518
▁spr	-1519
bor	-1520
og	-1521
▁amazing	-1522
▁pudd	-1523
▁well	-1524
▁poin	-1525
▁instead	-1526
▁ant	-1527
▁three	-1528
▁wish	-1529
▁late	-1530
▁pack	-1531
▁dolls	-1532
▁Teddy	-1533
yard	-1534
▁jar	-1535
▁closed	-1536
ming	-1537
ract	-1538
▁backyard	-1539
▁elephant	-1540
▁morning	-1541
▁though	-1542
▁smart	-1543
cked	-1544
ible	-1545
▁rocks	-1546
▁pig	-1547
▁cray	-1548
ee	-1549
▁lunch	-1550
olly	-1551
▁sitting	-1552
▁sang	-1553
▁dragon	-1554
ire	-1555
ses	-1556
▁wel	-1557
▁bus	-1558
▁storm	-1559
▁Daisy	-1560
▁such	-1561
▁strange	-1562
▁cow	-1563
▁ph	-1564
ling	-1565
asket	-1566
▁mail	-1567
iver	-1568
▁miss	-1569
▁basket	-1570
▁searched	-1571
▁leaf	-1572
▁neigh	-1573
sp	-1574
▁makes	-1575
▁creat	-1576
▁crab	-1577
But	-1578
▁sign	-1579
ased	-1580
ang	-1581
ub	-1582
ball	-1583
ined	-1584
Of	-1585
▁few	-1586
ross	-1587
▁turns	-1588
▁juice	-1589
▁letter	-1590
▁mud	-1591
".	-1592
▁cute	-1593
▁barked	-1594
ever	-1595
▁stre	-1596
pper	-1597
▁belie	-1598
used	-1599
▁orange	-1600
ese	-1601
▁neck	-1602
▁carry	-1603
ren	-1604
▁wings	-1605
▁past	-1606
▁gift	-1607
itten	-1608
▁purp	-1609
▁cheese	-1610
▁wore	-1611
▁war	-1612
▁hig	-1613
▁fan	-1614
▁year	-1615
▁patient	-1616
Tim	-1617
▁shoes	-1618
▁Emma	-1619
▁Ducky	-1620
▁ben	-1621
▁smo	-1622
me	-1623
▁apples	-1624
▁secret	-1625
▁hiding	-1626
▁belong	-1627
▁purple	-1628
uddy	-1629
▁fixed	-1630
igg	-1631
▁egg	-1632
▁brown	-1633
▁taking	-1634
▁butt	-1635
app	-1636
▁neighbor	-1637
▁children	-1638
▁Tweety	-1639
▁round	-1640
▁faster	-1641
▁welcome	-1642
▁dist	-1643
blem	-1644
▁problem	-1645
▁boun	-1646
▁shap	-1647
vel	-1648
▁mil	-1649
▁whe	-1650
▁road	-1651
▁fit	-1652
▁stu	-1653
▁seem	-1654
▁singing	-1655
▁bottle	-1656
br	-1657
▁spid	-1658
▁bought	-1659
▁colle	-1660
ises	-1661
▁suddenly	-1662
▁sug	-1663
▁hor	-1664
▁throw	-1665
ipped	-1666
▁Ch	-1667
▁jun	-1668
▁likes	-1669
isk	-1670
▁snake	-1671
▁filled	-1672
▁buck	-1673
▁Maybe	-1674
▁milk	-1675
▁Buddy	-1676
ail	-1677
ian	-1678
▁bench	-1679
▁days	-1680
▁higher	-1681
▁helpful	-1682
▁disapp	-1683
▁craw	-1684
irth	-1685
▁wagged	-1686
irthday	-1687
fish	-1688
onely	-1689
▁lonely	-1690
board	-1691
▁pocket	-1692
▁heart	-1693
▁cozy	-1694
▁trou	-1695
ugg	-1696
emo	-1697
sw	-1698
▁min	-1699
▁talking	-1700
▁trip	-1701
unt	-1702
ining	-1703
fused	-1704
▁Nemo	-1705
▁ob	-1706
▁answ	-1707
▁Together	-1708
▁har	-1709
▁start	-1710
▁band	-1711
▁paw	-1712
▁words	-1713
▁forever	-1714
▁teac	-1715
▁nose	-1716
aur	-1717
▁driver	-1718
▁lake	-1719
▁same	-1720
ose	-1721
itch	-1722
▁inc	-1723
▁birthday	-1724
iskers	-1725
▁street	-1726
▁prot	-1727
▁stand	-1728
▁pers	-1729
▁mist	-1730
▁Bu	-1731
erry	-1732
▁Br	-1733
▁whist	-1734
▁tasty	-1735
▁kick	-1736
▁Whiskers	-1737
▁eas	-1738
▁knocked	-1739
▁puddle	-1740
to	-1741
▁spider	-1742
ountain	-1743
▁coat	-1744
▁mark	-1745
▁teacher	-1746
▁seed	-1747
Maybe	-1748
▁healthy	-1749
▁rolled	-1750
▁act	-1751
▁ban	-1752
ass	-1753
▁missed	-1754
▁pop	-1755
▁Ellie	-1756
fortable	-1757
▁cover	-1758
▁shell	-1759
▁des	-1760
▁believe	-1761
▁drove	-1762
▁birdie	-1763
▁wants	-1764
cing	-1765
▁honey	-1766
eb	-1767
▁cookie	-1768
▁grew	-1769
▁banan	-1770
▁pill	-1771
▁gentle	-1772
▁spin	-1773
bow	-1774
▁val	-1775
▁bow	-1776
▁spo	-1777
idge	-1778
▁appeared	-1779
▁bush	-1780
▁collect	-1781
▁drew	-1782
▁teach	-1783
▁Brown	-1784
The	-1785
▁landed	-1786
▁organ	-1787
▁shop	-1788
▁most	-1789
▁shining	-1790
▁part	-1791
▁sharp	-1792
▁fence	-1793
ches	-1794
ize	-1795
alm	-1796
▁living	-1797
▁magical	-1798
▁nut	-1799
▁power	-1800
ale	-1801
ato	-1802
umb	-1803
▁later	-1804
▁sandwich	-1805
▁rainbow	-1806
▁shy	-1807
▁shirt	-1808
▁knee	-1809
▁seek	-1810
▁laughing	-1811
▁shr	-1812
▁longer	-1813
▁af	-1814
▁wra	-1815
ital	-1816
sting	-1817
▁Joe	-1818
▁worm	-1819
▁songs	-1820
▁watching	-1821
▁hosp	-1822
▁hospital	-1823
▁moved	-1824
cer	-1825
▁phone	-1826
bbles	-1827
▁rob	-1828
▁sack	-1829
▁pract	-1830
▁feather	-1831
▁kite	-1832
ually	-1833
▁cave	-1834
▁spoon	-1835
▁ap	-1836
▁suc	-1837
▁pile	-1838
ator	-1839
▁live	-1840
▁mad	-1841
▁Thank	-1842
▁puzz	-1843
▁jungle	-1844
▁mine	-1845
▁horse	-1846
▁onto	-1847
aughty	-1848
▁inv	-1849
▁chick	-1850
▁robot	-1851
▁cou	-1852
▁busy	-1853
▁meet	-1854
▁naughty	-1855
▁life	-1856
▁mach	-1857
▁spark	-1858
umpy	-1859
▁bread	-1860
▁med	-1861
epend	-1862
▁coo	-1863
nic	-1864
cks	-1865
orrow	-1866
▁kitten	-1867
▁crayons	-1868
raid	-1869
▁cart	-1870
▁picnic	-1871
▁building	-1872
▁afraid	-1873
▁button	-1874
▁joy	-1875
▁carrots	-1876
▁wonderful	-1877
▁bucket	-1878
▁along	-1879
▁wolf	-1880
▁wash	-1881
▁pan	-1882
▁chased	-1883
▁scream	-1884
ocol	-1885
▁smiles	-1886
▁gently	-1887
ourn	-1888
adow	-1889
▁asleep	-1890
ular	-1891
▁chocol	-1892
▁thin	-1893
▁journ	-1894
▁tomorrow	-1895
▁oven	-1896
▁lem	-1897
▁bur	-1898
▁exp	-1899
ially	-1900
una	-1901
▁fold	-1902
▁cir	-1903
▁drawing	-1904
mb	-1905
pecially	-1906
▁swimming	-1907
▁taste	-1908
▁rope	-1909
▁especially	-1910
▁spicy	-1911
randma	-1912
eter	-1913
▁dirt	-1914
▁peace	-1915
▁mum	-1916
▁foot	-1917
com	-1918
▁meant	-1919
▁holding	-1920
▁messy	-1921
▁ser	-1922
irp	-1923
▁plane	-1924
▁di	-1925
▁chocolate	-1926
▁tasted	-1927
Please	-1928
▁shake	-1929
▁bugs	-1930
▁protect	-1931
▁zoo	-1932
▁slowly	-1933
▁push	-1934
ert	-1935
▁su	-1936
▁save	-1937
▁intere	-1938
▁vill	-1939
▁drive	-1940
▁young	-1941
▁seat	-1942
▁touc	-1943
▁stone	-1944
▁pour	-1945
▁cheered	-1946
▁shook	-1947
▁sounds	-1948
▁mistake	-1949
ress	-1950
▁coin	-1951
▁bone	-1952
oose	-1953
lla	-1954
▁lucky	-1955
cean	-1956
▁ocean	-1957
ity	-1958
▁sal	-1959
▁pres	-1960
▁anyone	-1961
llo	-1962
shine	-1963
▁promise	-1964
▁knowing	-1965
ho	-1966
▁nearby	-1967
gly	-1968
▁imag	-1969
▁ce	-1970
▁sol	-1971
▁sunshine	-1972
▁confused	-1973
My	-1974
umber	-1975
▁wild	-1976
gest	-1977
▁touched	-1978
▁glow	-1979
▁ugly	-1980
▁whole	-1981
▁mind	-1982
ions	-1983
▁turt	-1984
▁treats	-1985
▁joke	-1986
▁machine	-1987
elly	-1988
▁smelled	-1989
den	-1990
ella	-1991
ten	-1992
▁pass	-1993
getable	-1994
▁cleaned	-1995
▁gray	-1996
els	-1997
▁vegetable	-1998
▁Tweetie	-1999
ove	-2000
ment	-2001
▁ret	-2002
▁whistle	-2003
▁fle	-2004
▁bake	-2005
kin	-2006
▁calm	-2007
▁fancy	-2008
▁Jim	-2009
▁hidden	-2010
▁myster	-2011
▁wave	-2012
▁Le	-2013
▁hoped	-2014
oop	-2015
imi	-2016
▁tid	-2017
▁stars	-2018
▁splas	-2019
izz	-2020
▁turtle	-2021
▁interesting	-2022
▁couch	-2023
pa	-2024
▁supp	-2025
▁vase	-2026
▁village	-2027
▁clever	-2028
▁shapes	-2029
▁present	-2030
▁ship	-2031
▁shelf	-2032
▁net	-2033
▁Mimi	-2034
▁whenever	-2035
▁wide	-2036
▁wing	-2037
bar	-2038
▁retur	-2039
▁tea	-2040
▁finish	-2041
▁Jen	-2042
▁Daddy	-2043
▁tidy	-2044
dge	-2045
onest	-2046
ife	-2047
ont	-2048
▁waiting	-2049
▁jelly	-2050
▁ign	-2051
▁bell	-2052
▁asks	-2053
ama	-2054
▁saved	-2055
▁boss	-2056
▁Bella	-2057
▁spe	-2058
▁ent	-2059
▁fing	-2060
▁card	-2061
▁rude	-2062
barra	-2063
box	-2064
▁puzzle	-2065
▁clown	-2066
▁embarra	-2067
▁wondered	-2068
▁forget	-2069
▁cloth	-2070
▁Molly	-2071
▁Jerry	-2072
▁tightly	-2073
lace	-2074
▁sour	-2075
vous	-2076
▁write	-2077
▁necklace	-2078
▁smooth	-2079
▁honest	-2080
▁front	-2081
Hey	-2082
▁pillow	-2083
erly	-2084
▁wearing	-2085
la	-2086
▁grumpy	-2087
mer	-2088
▁hello	-2089
▁stories	-2090
▁giant	-2091
▁sel	-2092
▁zoom	-2093
▁spoil	-2094
▁ducks	-2095
▁sur	-2096
▁path	-2097
▁bark	-2098
cap	-2099
▁snowman	-2100
▁av	-2101
▁chew	-2102
ult	-2103
▁rad	-2104
▁emp	-2105
▁plate	-2106
▁empty	-2107
ndpa	-2108
ope	-2109
▁prince	-2110
▁fruits	-2111
▁string	-2112
▁lemon	-2113
▁years	-2114
▁group	-2115
▁runs	-2116
▁class	-2117
▁working	-2118
▁quest	-2119
▁jew	-2120
lower	-2121
▁spray	-2122
▁Re	-2123
▁trouble	-2124
▁pizz	-2125
▁selfish	-2126
▁Their	-2127
▁lad	-2128
ward	-2129
▁huge	-2130
▁thinks	-2131
▁gather	-2132
▁pretended	-2133
▁noises	-2134
eth	-2135
▁Leo	-2136
ness	-2137
urse	-2138
▁change	-2139
▁arms	-2140
aughter	-2141
▁pizza	-2142
▁ner	-2143
▁fighting	-2144
▁vegetables	-2145
oppy	-2146
ors	-2147
▁nervous	-2148
ork	-2149
▁pointed	-2150
▁ladder	-2151
▁stra	-2152
▁sleepy	-2153
izzy	-2154
▁Sn	-2155
▁fil	-2156
ars	-2157
▁explor	-2158
▁grab	-2159
▁chest	-2160
▁ash	-2161
▁line	-2162
▁slid	-2163
▁sheep	-2164
▁mot	-2165
ipe	-2166
▁Johnny	-2167
▁jumping	-2168
▁fake	-2169
▁legs	-2170
▁sold	-2171
▁decor	-2172
▁trust	-2173
▁across	-2174
▁clouds	-2175
ensive	-2176
▁lazy	-2177
▁lay	-2178
▁cheer	-2179
▁scar	-2180
era	-2181
▁expensive	-2182
▁smelly	-2183
▁moon	-2184
▁van	-2185
▁Jill	-2186
est	-2187
work	-2188
▁tie	-2189
▁search	-2190
uce	-2191
▁hang	-2192
▁Fred	-2193
▁feels	-2194
▁pool	-2195
▁lovely	-2196
▁Remy	-2197
▁twins	-2198
imed	-2199
▁drum	-2200
▁drank	-2201
▁lift	-2202
▁step	-2203
▁remind	-2204
▁embarrassed	-2205
▁person	-2206
▁stepped	-2207
▁easy	-2208
pect	-2209
▁which	-2210
▁Mark	-2211
▁dogs	-2212
▁carried	-2213
▁yog	-2214
▁hum	-2215
▁police	-2216
▁beak	-2217
▁scre	-2218
Tom	-2219
▁ring	-2220
▁bal	-2221
▁reg	-2222
▁bossy	-2223
▁cleaning	-2224
osaur	-2225
▁Emily	-2226
▁snacks	-2227
▁tool	-2228
▁balls	-2229
▁weak	-2230
▁Be	-2231
▁daughter	-2232
iting	-2233
▁chase	-2234
▁cro	-2235
Be	-2236
▁pri	-2237
▁dinosaur	-2238
irr	-2239
ush	-2240
▁deer	-2241
▁queen	-2242
▁pin	-2243
▁law	-2244
▁sweetie	-2245
▁closet	-2246
▁places	-2247
▁teeth	-2248
▁gold	-2249
▁sticks	-2250
ond	-2251
▁last	-2252
▁gun	-2253
▁passed	-2254
▁stood	-2255
▁plants	-2256
▁Brownie	-2257
isa	-2258
OK	-2259
▁creative	-2260
▁polite	-2261
▁My	-2262
▁mov	-2263
▁splash	-2264
amed	-2265
▁sugar	-2266
▁excla	-2267
▁Bunny	-2268
▁pay	-2269
▁hope	-2270
▁exclaimed	-2271
▁rich	-2272
▁relie	-2273
▁dish	-2274
▁blow	-2275
▁understood	-2276
▁answer	-2277
▁sell	-2278
▁powerful	-2279
▁medic	-2280
▁furry	-2281
lves	-2282
▁wand	-2283
▁medicine	-2284
▁Lisa	-2285
erp	-2286
▁mountain	-2287
▁rocket	-2288
▁lead	-2289
oman	-2290
cape	-2291
▁check	-2292
▁woman	-2293
▁Bun	-2294
▁hero	-2295
oof	-2296
▁fear	-2297
▁Red	-2298
▁eag	-2299
▁pump	-2300
▁peaceful	-2301
▁weird	-2302
▁seemed	-2303
▁map	-2304
▁success	-2305
erpill	-2306
▁caterpill	-2307
▁stret	-2308
▁famous	-2309
▁gen	-2310
▁test	-2311
ual	-2312
ipp	-2313
▁boring	-2314
▁dancing	-2315
▁motor	-2316
erries	-2317
▁Ollie	-2318
owed	-2319
▁ones	-2320
▁chicken	-2321
▁berries	-2322
▁disco	-2323
▁spilled	-2324
▁sort	-2325
arge	-2326
▁Bet	-2327
rag	-2328
ti	-2329
▁nothing	-2330
▁matter	-2331
itter	-2332
▁cri	-2333
▁gate	-2334
het	-2335
▁cage	-2336
▁mysterious	-2337
▁match	-2338
▁caterpillar	-2339
▁relieved	-2340
▁happening	-2341
▁lock	-2342
▁space	-2343
▁tig	-2344
oomy	-2345
aghet	-2346
aghetti	-2347
ometimes	-2348
ume	-2349
▁tummy	-2350
▁shark	-2351
▁print	-2352
▁maybe	-2353
lebr	-2354
▁lose	-2355
▁adm	-2356
▁gigg	-2357
▁scare	-2358
▁celebr	-2359
▁clear	-2360
▁spaghetti	-2361
▁Mama	-2362
arl	-2363
▁dizzy	-2364
▁journey	-2365
▁spent	-2366
▁rec	-2367
aving	-2368
▁ord	-2369
▁hugs	-2370
▁soap	-2371
▁mic	-2372
▁poor	-2373
ustr	-2374
▁rough	-2375
▁crown	-2376
▁asking	-2377
▁team	-2378
gy	-2379
▁hur	-2380
pack	-2381
▁whale	-2382
▁pray	-2383
▁With	-2384
▁forgive	-2385
▁jewel	-2386
▁taught	-2387
ser	-2388
▁organized	-2389
▁bald	-2390
▁mixed	-2391
▁large	-2392
▁frustr	-2393
▁towel	-2394
▁balloons	-2395
isp	-2396
▁missing	-2397
▁Mary	-2398
▁How	-2399
▁banana	-2400
▁finding	-2401
▁guit	-2402
▁true	-2403
▁rare	-2404
▁feet	-2405
oot	-2406
▁toug	-2407
▁noisy	-2408
aking	-2409
▁faces	-2410
▁moving	-2411
not	-2412
ventually	-2413
▁slipped	-2414
port	-2415
▁mirr	-2416
▁comes	-2417
▁covered	-2418
airs	-2419
▁comfortable	-2420
▁boot	-2421
iff	-2422
▁spend	-2423
▁rid	-2424
phone	-2425
▁micro	-2426
ragile	-2427
▁jack	-2428
▁norm	-2429
▁stir	-2430
▁cannot	-2431
▁stuff	-2432
ado	-2433
▁mirror	-2434
▁lamp	-2435
▁become	-2436
ory	-2437
▁tough	-2438
ique	-2439
▁tick	-2440
▁normal	-2441
▁frustrated	-2442
▁straw	-2443
▁splashed	-2444
ote	-2445
▁breath	-2446
ones	-2447
▁guitar	-2448
▁Why	-2449
▁fragile	-2450
▁often	-2451
ute	-2452
▁number	-2453
▁whisp	-2454
▁unique	-2455
▁hunt	-2456
unk	-2457
▁gener	-2458
▁ignor	-2459
▁batter	-2460
▁mel	-2461
und	-2462
▁borrow	-2463
ilt	-2464
olog	-2465
▁snee	-2466
alous	-2467
▁glass	-2468
▁feed	-2469
alk	-2470
▁shoot	-2471
zed	-2472
▁exam	-2473
▁flag	-2474
bby	-2475
aw	-2476
▁glue	-2477
▁ants	-2478
▁jealous	-2479
▁Luna	-2480
anut	-2481
▁apolog	-2482
▁jacket	-2483
imp	-2484
issors	-2485
▁dest	-2486
▁Come	-2487
▁brush	-2488
▁march	-2489
read	-2490
▁body	-2491
▁feathers	-2492
▁icy	-2493
▁discover	-2494
arn	-2495
▁Mrs	-2496
▁yelled	-2497
▁cost	-2498
▁ashamed	-2499
▁sword	-2500
▁cone	-2501
▁ter	-2502
▁spoiled	-2503
▁branches	-2504
▁creature	-2505
▁takes	-2506
fast	-2507
▁incred	-2508
▁eggs	-2509
Come	-2510
▁scissors	-2511
▁pumpkin	-2512
▁breakfast	-2513
▁St	-2514
▁resc	-2515
▁tiger	-2516
▁yourself	-2517
▁strawber	-2518
▁spread	-2519
▁driving	-2520
▁note	-2521
▁generous	-2522
Are	-2523
▁fis	-2524
▁dig	-2525
▁fine	-2526
▁unus	-2527
cil	-2528
▁scarf	-2529
▁hopping	-2530
▁incredible	-2531
▁thick	-2532
▁unusual	-2533
▁eld	-2534
▁fill	-2535
St	-2536
▁acorn	-2537
yal	-2538
▁pencil	-2539
▁balance	-2540
▁washed	-2541
▁exploring	-2542
▁yarn	-2543
▁movie	-2544
▁shore	-2545
▁finger	-2546
selves	-2547
▁perform	-2548
▁roar	-2549
▁terri	-2550
▁tele	-2551
▁Cat	-2552
▁peanut	-2553
▁tun	-2554
▁tent	-2555
▁fridge	-2556
▁leaving	-2557
Timmy	-2558
▁bounce	-2559
▁dough	-2560
▁Chirp	-2561
▁built	-2562
▁these	-2563
▁suggest	-2564
▁kiss	-2565
▁loudly	-2566
▁offered	-2567
▁Bobby	-2568
▁loyal	-2569
▁seeds	-2570
▁bubbles	-2571
fic	-2572
▁add	-2573
ggy	-2574
▁cross	-2575
▁elderly	-2576
▁harm	-2577
▁swan	-2578
▁nod	-2579
▁track	-2580
▁kicked	-2581
andy	-2582
▁solve	-2583
▁shadow	-2584
dle	-2585
ground	-2586
▁bloom	-2587
▁diffic	-2588
▁Fr	-2589
light	-2590
▁stubb	-2591
▁ind	-2592
mbre	-2593
▁unl	-2594
Max	-2595
▁fat	-2596
▁umbre	-2597
▁painting	-2598
▁taken	-2599
▁tomato	-2600
▁dead	-2601
▁difficult	-2602
▁wagon	-2603
als	-2604
▁useful	-2605
▁bathroom	-2606
▁stubborn	-2607
▁log	-2608
▁mighty	-2609
▁wrote	-2610
▁Even	-2611
▁painted	-2612
▁waves	-2613
cc	-2614
ipop	-2615
llipop	-2616
cient	-2617
▁giggled	-2618
▁pir	-2619
▁lollipop	-2620
▁delicate	-2621
▁fluffy	-2622
ray	-2623
▁barn	-2624
kn	-2625
▁sque	-2626
▁terrible	-2627
▁Don	-2628
▁packed	-2629
▁ancient	-2630
▁tape	-2631
bin	-2632
umsy	-2633
▁cor	-2634
▁crazy	-2635
▁rode	-2636
▁tag	-2637
▁ham	-2638
uring	-2639
▁fool	-2640
▁Sometimes	-2641
robe	-2642
▁umbrella	-2643
▁clumsy	-2644
▁wake	-2645
▁cabin	-2646
▁compet	-2647
▁weal	-2648
known	-2649
ipper	-2650
▁fright	-2651
corn	-2652
▁Chirpy	-2653
▁bushes	-2654
ighed	-2655
▁witch	-2656
▁stat	-2657
▁tripped	-2658
▁Momo	-2659
▁using	-2660
Where	-2661
▁unknown	-2662
▁escape	-2663
▁clock	-2664
▁bitter	-2665
pes	-2666
▁stove	-2667
▁Andy	-2668
▁bean	-2669
Now	-2670
▁scr	-2671
▁Polly	-2672
▁screamed	-2673
▁libr	-2674
asing	-2675
▁popcorn	-2676
▁forgave	-2677
ony	-2678
▁nosy	-2679
▁licked	-2680
ying	-2681
▁dol	-2682
▁dolph	-2683
▁Snow	-2684
▁gar	-2685
▁market	-2686
▁dove	-2687
▁foolish	-2688
▁kindness	-2689
▁anyway	-2690
▁Bear	-2691
▁wander	-2692
▁fier	-2693
▁measure	-2694
▁If	-2695
▁circle	-2696
▁dug	-2697
▁Pe	-2698
▁frightened	-2699
▁jam	-2700
▁gloomy	-2701
▁dreaming	-2702
▁ref	-2703
edient	-2704
comfortable	-2705
▁Al	-2706
▁mailbox	-2707
lies	-2708
▁Your	-2709
▁fierce	-2710
illi	-2711
▁wealthy	-2712
gu	-2713
▁uncomfortable	-2714
▁gas	-2715
xible	-2716
▁depend	-2717
ung	-2718
urous	-2719
▁crack	-2720
▁wis	-2721
▁cere	-2722
▁adventurous	-2723
▁bored	-2724
land	-2725
iable	-2726
▁wrap	-2727
▁bridge	-2728
▁obedient	-2729
▁disappeared	-2730
▁respect	-2731
▁salad	-2732
▁board	-2733
fted	-2734
▁gum	-2735
▁competit	-2736
▁means	-2737
▁char	-2738
▁Jimmy	-2739
▁statue	-2740
▁crawled	-2741
▁clay	-2742
▁study	-2743
▁safely	-2744
▁sleeping	-2745
▁flexible	-2746
arth	-2747
inal	-2748
▁week	-2749
▁ruined	-2750
▁cereal	-2751
▁record	-2752
coa	-2753
▁hose	-2754
▁nuts	-2755
▁sauce	-2756
elp	-2757
▁swe	-2758
▁giving	-2759
▁impress	-2760
▁trucks	-2761
ict	-2762
▁potato	-2763
▁tank	-2764
irsty	-2765
illiant	-2766
▁office	-2767
▁Instead	-2768
▁belonged	-2769
▁shoe	-2770
▁brace	-2771
▁liz	-2772
▁brilliant	-2773
▁dull	-2774
▁trick	-2775
▁bracelet	-2776
▁wheel	-2777
▁Bird	-2778
▁reliable	-2779
▁poured	-2780
▁orig	-2781
▁practiced	-2782
▁stage	-2783
▁cher	-2784
met	-2785
▁grandpa	-2786
ormous	-2787
cod	-2788
▁twist	-2789
▁corn	-2790
▁helmet	-2791
▁successful	-2792
apped	-2793
▁enormous	-2794
▁badly	-2795
▁smiling	-2796
▁original	-2797
▁cam	-2798
▁Ros	-2799
▁bananas	-2800
▁thirsty	-2801
▁cocoa	-2802
▁island	-2803
▁Please	-2804
sc	-2805
▁gives	-2806
▁flash	-2807
cles	-2808
▁meal	-2809
▁destro	-2810
▁independ	-2811
▁juicy	-2812
▁rose	-2813
▁sunf	-2814
▁hairy	-2815
any	-2816
isted	-2817
Stop	-2818
inky	-2819
▁serious	-2820
▁cooking	-2821
▁goes	-2822
▁loves	-2823
▁knife	-2824
▁lizard	-2825
▁mole	-2826
▁hoop	-2827
▁steal	-2828
▁suggested	-2829
▁independent	-2830
loo	-2831
ours	-2832
▁mask	-2833
ery	-2834
oin	-2835
▁shiver	-2836
▁Doggy	-2837
▁toast	-2838
▁marble	-2839
▁parade	-2840
gust	-2841
▁impressive	-2842
▁Rosie	-2843
▁hay	-2844
▁blueber	-2845
▁aunt	-2846
▁ang	-2847
inary	-2848
ushed	-2849
▁horn	-2850
bled	-2851
▁disgust	-2852
▁crocod	-2853
▁grace	-2854
▁mid	-2855
anger	-2856
▁raven	-2857
▁relax	-2858
upid	-2859
atter	-2860
▁joined	-2861
▁goat	-2862
▁early	-2863
shion	-2864
▁dependable	-2865
ages	-2866
▁counted	-2867
▁forth	-2868
▁wip	-2869
▁cheap	-2870
▁rat	-2871
▁invited	-2872
▁middle	-2873
ps	-2874
▁deliver	-2875
▁disgusting	-2876
▁Sm	-2877
▁pant	-2878
▁stamp	-2879
▁smaller	-2880
▁penny	-2881
uth	-2882
▁moder	-2883
iches	-2884
▁lifted	-2885
▁playful	-2886
▁sandwiches	-2887
▁square	-2888
ilty	-2889
cut	-2890
▁Buzz	-2891
▁popular	-2892
Me	-2893
▁regular	-2894
▁jolly	-2895
▁guilty	-2896
▁fountain	-2897
▁lab	-2898
▁exciting	-2899
uper	-2900
Help	-2901
▁beet	-2902
▁hammer	-2903
▁prize	-2904
host	-2905
▁knight	-2906
▁thoughtful	-2907
▁crocodile	-2908
▁tor	-2909
amond	-2910
▁clap	-2911
aurant	-2912
▁restaurant	-2913
▁locked	-2914
▁corner	-2915
▁stupid	-2916
▁hurts	-2917
▁disappoin	-2918
▁diamond	-2919
▁pasta	-2920
▁Freddy	-2921
▁puts	-2922
▁charming	-2923
▁eye	-2924
▁paws	-2925
▁compass	-2926
▁reminded	-2927
▁fork	-2928
▁sock	-2929
▁crayon	-2930
▁choose	-2931
▁crane	-2932
▁jet	-2933
▁camera	-2934
▁needs	-2935
▁destroy	-2936
▁env	-2937
▁ghost	-2938
iness	-2939
▁tunn	-2940
If	-2941
cream	-2942
▁gem	-2943
atch	-2944
▁cheerful	-2945
▁warned	-2946
▁sailed	-2947
ost	-2948
time	-2949
▁pige	-2950
▁jog	-2951
▁squee	-2952
▁arrow	-2953
▁garage	-2954
▁rep	-2955
▁batht	-2956
▁stri	-2957
▁bathtub	-2958
▁returned	-2959
▁Betsy	-2960
▁grown	-2961
▁saf	-2962
▁twig	-2963
▁gir	-2964
▁saying	-2965
▁pil	-2966
▁muff	-2967
▁harmless	-2968
ctop	-2969
ates	-2970
▁fearful	-2971
▁trunk	-2972
▁careless	-2973
▁hunter	-2974
▁nowhere	-2975
▁led	-2976
vice	-2977
▁goose	-2978
▁modern	-2979
erable	-2980
▁cartoon	-2981
▁low	-2982
▁fig	-2983
ating	-2984
▁dolphin	-2985
▁gifted	-2986
▁beetle	-2987
▁humble	-2988
▁miserable	-2989
▁tire	-2990
ention	-2991
anged	-2992
▁comput	-2993
iv	-2994
▁walks	-2995
▁distance	-2996
▁library	-2997
▁super	-2998
▁stranger	-2999
ctopus	-3000
▁bandage	-3001
▁spring	-3002
▁Some	-3003
▁truth	-3004
▁Tiny	-3005
▁tied	-3006
▁eager	-3007
▁yet	-3008
▁mush	-3009
icop	-3010
icopter	-3011
▁jeep	-3012
▁vide	-3013
▁roof	-3014
▁doesn	-3015
▁filthy	-3016
▁zip	-3017
▁order	-3018
▁cooked	-3019
▁coll	-3020
▁enc	-3021
▁rug	-3022
▁wrapped	-3023
ready	-3024
oli	-3025
▁bicy	-3026
▁twirl	-3027
▁sunflower	-3028
▁torn	-3029
▁bottom	-3030
▁helicopter	-3031
▁pian	-3032
▁whispered	-3033
ccoli	-3034
▁create	-3035
▁already	-3036
▁compassion	-3037
▁Mum	-3038
▁trap	-3039
ither	-3040
▁octopus	-3041
▁barber	-3042
▁disappointed	-3043
▁boxes	-3044
▁answered	-3045
▁tries	-3046
▁flashlight	-3047
▁piano	-3048
▁parrot	-3049
▁coins	-3050
▁soldier	-3051
▁ordinary	-3052
▁apologized	-3053
▁crawl	-3054
▁pants	-3055
▁anx	-3056
▁quar	-3057
ject	-3058
▁deaf	-3059
▁comb	-3060
▁cryst	-3061
▁ending	-3062
ief	-3063
▁ways	-3064
▁anxious	-3065
▁mushroom	-3066
▁candle	-3067
▁case	-3068
▁magn	-3069
▁haircut	-3070
▁computer	-3071
ina	-3072
▁waff	-3073
▁er	-3074
▁prep	-3075
most	-3076
▁graceful	-3077
▁tooth	-3078
▁cop	-3079
▁troubled	-3080
▁stream	-3081
old	-3082
▁broccoli	-3083
▁rescue	-3084
▁dreamed	-3085
io	-3086
▁soar	-3087
▁value	-3088
▁rubb	-3089
▁Tr	-3090
ellig	-3091
▁Smith	-3092
▁advice	-3093
▁almost	-3094
▁belt	-3095
▁intellig	-3096
▁mug	-3097
▁anywhere	-3098
▁lying	-3099
▁smoke	-3100
▁send	-3101
ature	-3102
▁sil	-3103
▁lean	-3104
▁mill	-3105
▁butterflies	-3106
▁bull	-3107
▁frown	-3108
▁sandc	-3109
illa	-3110
▁changed	-3111
▁times	-3112
opl	-3113
eropl	-3114
▁decorate	-3115
▁kis	-3116
▁suit	-3117
utes	-3118
▁eng	-3119
▁skin	-3120
Here	-3121
▁harsh	-3122
▁base	-3123
▁vi	-3124
▁aeropl	-3125
▁helpless	-3126
▁celebrate	-3127
▁compassionate	-3128
opard	-3129
▁melon	-3130
▁pale	-3131
▁tricks	-3132
▁yours	-3133
▁wallet	-3134
▁bees	-3135
▁restless	-3136
live	-3137
umpet	-3138
▁jug	-3139
▁persist	-3140
▁quarrel	-3141
▁sighed	-3142
▁stretch	-3143
▁envious	-3144
▁shine	-3145
▁learning	-3146
▁angel	-3147
▁trumpet	-3148
▁thief	-3149
▁excite	-3150
▁minutes	-3151
▁alert	-3152
▁planet	-3153
▁bicycle	-3154
▁picking	-3155
▁notice	-3156
▁rice	-3157
▁sink	-3158
▁thinking	-3159
atient	-3160
▁intelligent	-3161
▁attract	-3162
▁cube	-3163
▁tem	-3164
▁question	-3165
ubby	-3166
▁tax	-3167
▁carp	-3168
▁vol	-3169
can	-3170
▁yogurt	-3171
▁lit	-3172
▁magnet	-3173
igator	-3174
uggled	-3175
▁may	-3176
▁bump	-3177
▁scoot	-3178
▁leopard	-3179
▁pepper	-3180
▁cap	-3181
▁enjoying	-3182
▁desk	-3183
▁flute	-3184
▁crystal	-3185
cake	-3186
▁viol	-3187
▁standing	-3188
▁valu	-3189
▁tunnel	-3190
▁cricket	-3191
▁chubby	-3192
▁carpet	-3193
orable	-3194
▁sle	-3195
▁stronger	-3196
▁scatter	-3197
Who	-3198
▁competitive	-3199
▁persistent	-3200
▁sweater	-3201
▁pigeon	-3202
▁impatient	-3203
▁encou	-3204
▁nail	-3205
▁those	-3206
▁basketball	-3207
▁adorable	-3208
▁speed	-3209
▁cact	-3210
cycle	-3211
▁rubbed	-3212
▁once	-3213
asses	-3214
▁taxi	-3215
▁figure	-3216
▁bedroom	-3217
▁reading	-3218
urb	-3219
▁load	-3220
▁attractive	-3221
▁guess	-3222
▁travel	-3223
▁knock	-3224
▁alligator	-3225
▁telling	-3226
▁violin	-3227
▁package	-3228
▁design	-3229
▁houses	-3230
ebra	-3231
▁scale	-3232
▁collar	-3233
▁pengu	-3234
▁envel	-3235
▁flour	-3236
▁laund	-3237
aff	-3238
hero	-3239
▁earth	-3240
▁laundry	-3241
cano	-3242
▁squash	-3243
▁added	-3244
angle	-3245
▁avoc	-3246
How	-3247
▁wiped	-3248
▁disturb	-3249
▁superhero	-3250
night	-3251
▁engine	-3252
▁purse	-3253
▁Rose	-3254
▁seal	-3255
▁melt	-3256
▁volcano	-3257
▁playground	-3258
▁themselves	-3259
▁valuable	-3260
▁zebra	-3261
▁barking	-3262
▁ears	-3263
cu	-3264
▁meat	-3265
▁guard	-3266
▁wheels	-3267
▁sheet	-3268
▁shrimp	-3269
▁radio	-3270
▁lively	-3271
ebook	-3272
▁notebook	-3273
▁post	-3274
▁pow	-3275
▁shade	-3276
▁ignorant	-3277
▁comet	-3278
▁raft	-3279
▁cats	-3280
▁cactus	-3281
▁speak	-3282
▁station	-3283
▁turkey	-3284
▁rece	-3285
▁pipe	-3286
▁questions	-3287
dest	-3288
▁hours	-3289
bul	-3290
▁Ella	-3291
▁curt	-3292
▁chalk	-3293
▁wire	-3294
▁saus	-3295
acht	-3296
▁Rex	-3297
▁curtain	-3298
▁happiness	-3299
dom	-3300
▁practice	-3301
▁enth	-3302
▁bags	-3303
▁pirate	-3304
az	-3305
▁thu	-3306
▁enthus	-3307
▁return	-3308
▁drawings	-3309
▁dust	-3310
▁wheat	-3311
▁tears	-3312
▁gathered	-3313
▁pony	-3314
▁boats	-3315
▁yacht	-3316
▁bul	-3317
affe	-3318
umbled	-3319
▁behave	-3320
aky	-3321
▁moms	-3322
▁firework	-3323
▁oat	-3324
nam	-3325
▁surf	-3326
▁screen	-3327
▁Pet	-3328
▁gets	-3329
▁univer	-3330
▁'	-3331
▁unlock	-3332
▁diary	-3333
▁temp	-3334
▁uncle	-3335
▁vet	-3336
▁dreams	-3337
▁compl	-3338
▁lights	-3339
▁comfort	-3340
▁ext	-3341
▁envelope	-3342
▁meadow	-3343
▁helps	-3344
▁scooter	-3345
▁vine	-3346
ache	-3347
bulance	-3348
▁ambulance	-3349
▁shape	-3350
▁chirp	-3351
▁yaw	-3352
▁acce	-3353
▁spinning	-3354
▁nicely	-3355
▁modest	-3356
▁arg	-3357
▁perm	-3358
▁half	-3359
▁nurse	-3360
▁jellyfish	-3361
▁Bubbles	-3362
ines	-3363
▁phot	-3364
▁costume	-3365
▁giraffe	-3366
▁cows	-3367
▁stack	-3368
▁aeroplane	-3369
aser	-3370
nament	-3371
▁reward	-3372
▁Pete	-3373
▁slept	-3374
▁bounced	-3375
iew	-3376
▁knot	-3377
▁support	-3378
ision	-3379
▁extra	-3380
▁distant	-3381
▁rub	-3382
▁mistakes	-3383
▁bulb	-3384
▁inse	-3385
▁view	-3386
▁thread	-3387
▁motorcycle	-3388
otter	-3389
▁Jenny	-3390
▁helper	-3391
▁otter	-3392
ito	-3393
▁city	-3394
▁camp	-3395
▁encoura	-3396
▁showing	-3397
▁skip	-3398
▁calling	-3399
▁ornament	-3400
▁gor	-3401
▁impro	-3402
▁trash	-3403
ceed	-3404
lete	-3405
▁pebble	-3406
tern	-3407
▁thankful	-3408
ulif	-3409
▁message	-3410
▁swinging	-3411
▁hipp	-3412
▁eventually	-3413
▁oy	-3414
▁Nut	-3415
▁dishes	-3416
▁tro	-3417
quito	-3418
▁riding	-3419
▁listening	-3420
▁repair	-3421
▁falling	-3422
▁forward	-3423
▁caulif	-3424
par	-3425
▁shield	-3426
▁tells	-3427
▁mos	-3428
lu	-3429
stic	-3430
▁shut	-3431
ination	-3432
ube	-3433
▁carrying	-3434
▁complete	-3435
▁ing	-3436
▁Will	-3437
▁climbing	-3438
iastic	-3439
▁enthusiastic	-3440
▁succeed	-3441
redient	-3442
▁ingredient	-3443
▁point	-3444
▁separ	-3445
▁Snowy	-3446
▁putting	-3447
▁Peter	-3448
▁mosquito	-3449
▁hotel	-3450
▁ticket	-3451
▁cauliflower	-3452
▁needle	-3453
▁eaten	-3454
▁marry	-3455
eer	-3456
▁boys	-3457
ailable	-3458
▁True	-3459
▁bubble	-3460
Sorry	-3461
sses	-3462
Ben	-3463
▁spell	-3464
lier	-3465
▁pee	-3466
hip	-3467
aged	-3468
▁object	-3469
▁excitement	-3470
▁tools	-3471
▁triangle	-3472
▁hook	-3473
▁gorilla	-3474
stri	-3475
▁attic	-3476
▁screw	-3477
▁puddles	-3478
arian	-3479
▁available	-3480
▁unpack	-3481
▁pretending	-3482
▁sparkly	-3483
▁gust	-3484
▁four	-3485
▁split	-3486
▁steak	-3487
▁chasing	-3488
▁inclu	-3489
▁tube	-3490
gging	-3491
▁pole	-3492
▁hippo	-3493
▁organize	-3494
▁stones	-3495
azz	-3496
▁onion	-3497
▁earlier	-3498
aid	-3499
▁barrel	-3500
▁harder	-3501
▁shells	-3502
▁friendship	-3503
▁fort	-3504
▁insect	-3505
▁eraser	-3506
▁itch	-3507
▁peach	-3508
▁poem	-3509
▁boots	-3510
▁pilot	-3511
▁pit	-3512
▁spun	-3513
▁football	-3514
vator	-3515
▁wife	-3516
Well	-3517
▁thunder	-3518
appy	-3519
▁mop	-3520
▁tray	-3521
▁mild	-3522
▁sniff	-3523
▁elevator	-3524
▁rod	-3525
▁polish	-3526
▁leash	-3527
elery	-3528
▁club	-3529
▁drawer	-3530
▁gro	-3531
seum	-3532
▁flea	-3533
▁hedge	-3534
▁chain	-3535
▁Nutty	-3536
▁cushion	-3537
▁pattern	-3538
ric	-3539
▁deter	-3540
▁museum	-3541
inoc	-3542
▁dive	-3543
▁monkeys	-3544
▁growing	-3545
▁seas	-3546
▁cries	-3547
▁grapes	-3548
cakes	-3549
▁rag	-3550
▁folder	-3551
we	-3552
▁mint	-3553
irit	-3554
essert	-3555
▁ingredients	-3556
▁fallen	-3557
ffe	-3558
phy	-3559
indeer	-3560
▁celery	-3561
body	-3562
ffee	-3563
▁nature	-3564
▁dessert	-3565
▁patch	-3566
▁hanging	-3567
▁baseball	-3568
strich	-3569
▁mem	-3570
▁determ	-3571
▁growl	-3572
▁hears	-3573
▁journal	-3574
▁trophy	-3575
▁vest	-3576
▁rushed	-3577
▁Many	-3578
▁stairs	-3579
▁walls	-3580
▁glove	-3581
▁hats	-3582
▁ur	-3583
▁rubber	-3584
▁itself	-3585
▁surprises	-3586
▁size	-3587
▁either	-3588
▁lend	-3589
▁ins	-3590
▁coal	-3591
▁reindeer	-3592
▁kay	-3593
chair	-3594
▁yoga	-3595
▁chess	-3596
▁penguin	-3597
▁video	-3598
▁Today	-3599
▁metal	-3600
▁factor	-3601
▁mule	-3602
▁shouldn	-3603
▁herb	-3604
▁baking	-3605
▁raced	-3606
▁biggest	-3607
▁salt	-3608
zzy	-3609
▁factory	-3610
▁pun	-3611
▁louder	-3612
seek	-3613
▁strawberry	-3614
▁squirrels	-3615
ressed	-3616
urch	-3617
▁rh	-3618
▁armchair	-3619
iest	-3620
▁cupboard	-3621
▁shows	-3622
▁fu	-3623
▁actually	-3624
▁coffee	-3625
▁Jake	-3626
▁judge	-3627
inocer	-3628
▁skipped	-3629
▁task	-3630
▁golf	-3631
▁skirt	-3632
▁counting	-3633
▁oyster	-3634
▁fre	-3635
iron	-3636
play	-3637
▁tap	-3638
asher	-3639
randpa	-3640
▁blueberries	-3641
▁popped	-3642
▁cudd	-3643
▁grocer	-3644
▁soc	-3645
omes	-3646
▁frame	-3647
▁musician	-3648
inoceros	-3649
washer	-3650
▁bin	-3651
ugged	-3652
▁repe	-3653
▁cord	-3654
▁impressed	-3655
gl	-3656
ley	-3657
▁soccer	-3658
▁magaz	-3659
▁spirit	-3660
iggle	-3661
▁dishwasher	-3662
▁avocado	-3663
▁resist	-3664
▁drop	-3665
▁kissed	-3666
▁display	-3667
▁stumbled	-3668
▁church	-3669
ney	-3670
▁Miss	-3671
▁obser	-3672
▁makeup	-3673
▁lotion	-3674
▁fresh	-3675
▁decide	-3676
▁battery	-3677
kelet	-3678
▁math	-3679
▁glowing	-3680
▁microphone	-3681
▁maze	-3682
▁No	-3683
▁fireman	-3684
▁matt	-3685
▁sight	-3686
▁film	-3687
▁handle	-3688
▁airport	-3689
gen	-3690
keep	-3691
▁loop	-3692
▁hive	-3693
▁skull	-3694
▁sett	-3695
▁Little	-3696
▁discovered	-3697
▁ink	-3698
▁por	-3699
▁rot	-3700
glasses	-3701
▁rhinoceros	-3702
▁hurry	-3703
▁sunglasses	-3704
▁freez	-3705
ations	-3706
▁hung	-3707
▁checked	-3708
▁quit	-3709
▁wool	-3710
chan	-3711
web	-3712
▁imagine	-3713
▁cob	-3714
▁mattress	-3715
icer	-3716
▁sounded	-3717
▁Fo	-3718
▁sy	-3719
▁lime	-3720
▁radish	-3721
▁vend	-3722
▁ostrich	-3723
place	-3724
▁skelet	-3725
▁stuffed	-3726
▁Rob	-3727
ef	-3728
▁reco	-3729
head	-3730
▁poke	-3731
imney	-3732
gn	-3733
▁ig	-3734
▁igloo	-3735
▁kayak	-3736
▁chimney	-3737
astle	-3738
▁prun	-3739
ucet	-3740
▁faucet	-3741
arry	-3742
▁nods	-3743
▁fisher	-3744
▁grand	-3745
▁crawling	-3746
ured	-3747
▁cooler	-3748
▁cobweb	-3749
▁cable	-3750
Thanks	-3751
▁sandcastle	-3752
▁vendor	-3753
▁excitedly	-3754
nger	-3755
▁buttons	-3756
scope	-3757
chanic	-3758
▁towers	-3759
▁spotted	-3760
▁powder	-3761
▁medal	-3762
aroo	-3763
angaroo	-3764
iling	-3765
esday	-3766
▁tut	-3767
▁mixer	-3768
▁zipper	-3769
umbers	-3770
▁spear	-3771
▁prov	-3772
▁fireplace	-3773
▁pointing	-3774
▁bury	-3775
▁napkin	-3776
▁rever	-3777
▁fixing	-3778
lter	-3779
▁muffin	-3780
▁homes	-3781
▁lightning	-3782
▁newsp	-3783
▁telephone	-3784
edy	-3785
▁shelter	-3786
case	-3787
▁kangaroo	-3788
ye	-3789
▁skeleton	-3790
▁mechanic	-3791
▁against	-3792
▁reef	-3793
ext	-3794
▁fisherman	-3795
▁managed	-3796
▁sub	-3797
▁sailor	-3798
▁veil	-3799
▁goal	-3800
ckey	-3801
▁hockey	-3802
▁refused	-3803
▁laser	-3804
▁cardboard	-3805
▁microscope	-3806
▁recogn	-3807
▁airpl	-3808
ron	-3809
▁weather	-3810
▁aut	-3811
▁ax	-3812
▁breat	-3813
▁anch	-3814
▁switch	-3815
▁pand	-3816
▁pear	-3817
▁tear	-3818
▁missile	-3819
▁root	-3820
▁Spike	-3821
▁temple	-3822
▁weep	-3823
▁determined	-3824
▁swung	-3825
keeper	-3826
orted	-3827
▁rise	-3828
▁slides	-3829
▁hoping	-3830
Dad	-3831
▁pine	-3832
▁accidents	-3833
▁numbers	-3834
▁wishes	-3835
▁gear	-3836
htray	-3837
▁bears	-3838
▁porch	-3839
▁tornado	-3840
ped	-3841
▁sne	-3842
▁anchor	-3843
▁parent	-3844
▁keeping	-3845
▁ed	-3846
Ouch	-3847
▁axe	-3848
▁disag	-3849
Yay	-3850
▁wipe	-3851
▁admired	-3852
▁fog	-3853
▁bookshe	-3854
▁jokes	-3855
▁sunset	-3856
▁Sunny	-3857
▁passport	-3858
▁hall	-3859
▁resp	-3860
▁planned	-3861
▁burn	-3862
▁blouse	-3863
▁blackboard	-3864
uggling	-3865
▁circles	-3866
▁short	-3867
inking	-3868
▁staff	-3869
▁grill	-3870
▁bookcase	-3871
▁bookshelf	-3872
ilet	-3873
▁art	-3874
ym	-3875
▁Look	-3876
▁ashtray	-3877
▁opera	-3878
erc	-3879
▁gym	-3880
▁shrink	-3881
Sam	-3882
▁jewelry	-3883
▁pal	-3884
shed	-3885
lau	-3886
▁toilet	-3887
ense	-3888
▁iron	-3889
▁dancer	-3890
▁winter	-3891
ience	-3892
▁peeked	-3893
omob	-3894
istol	-3895
essie	-3896
▁freezer	-3897
▁automob	-3898
▁fastest	-3899
▁backpack	-3900
▁Poppy	-3901
▁cabinet	-3902
▁magazine	-3903
▁miner	-3904
ampoo	-3905
▁palace	-3906
▁improve	-3907
▁oil	-3908
▁rained	-3909
▁sneeze	-3910
▁soil	-3911
▁exerc	-3912
▁photo	-3913
aced	-3914
▁bill	-3915
▁newspaper	-3916
te	-3917
▁prevent	-3918
▁picks	-3919
▁pistol	-3920
▁rolling	-3921
▁complain	-3922
arm	-3923
▁cherries	-3924
▁tutor	-3925
▁silver	-3926
▁cast	-3927
▁separate	-3928
ival	-3929
▁creek	-3930
▁flame	-3931
▁shocked	-3932
house	-3933
▁Carl	-3934
▁cane	-3935
stairs	-3936
▁explain	-3937
▁shampoo	-3938
▁subway	-3939
▁painter	-3940
▁spoke	-3941
vision	-3942
▁ten	-3943
▁beef	-3944
▁Sh	-3945
▁ward	-3946
▁suff	-3947
▁theater	-3948
▁ceiling	-3949
▁wardrobe	-3950
▁sadly	-3951
▁disappear	-3952
See	-3953
ately	-3954
▁panda	-3955
▁television	-3956
▁imagined	-3957
angu	-3958
▁cards	-3959
▁fingers	-3960
▁langu	-3961
▁ribb	-3962
▁bathe	-3963
▁weigh	-3964
lend	-3965
▁stirred	-3966
▁Pip	-3967
▁delight	-3968
▁mustache	-3969
hic	-3970
▁taller	-3971
▁shower	-3972
▁vehic	-3973
▁Spark	-3974
▁Sus	-3975
▁meowed	-3976
▁swamp	-3977
▁Pandy	-3978
▁fro	-3979
▁serve	-3980
▁fest	-3981
▁neat	-3982
▁choice	-3983
▁perfume	-3984
▁delay	-3985
▁pastry	-3986
▁dear	-3987
▁men	-3988
▁Are	-3989
▁meeting	-3990
▁oak	-3991
Did	-3992
nce	-3993
▁washing	-3994
▁birdc	-3995
asis	-3996
▁Floppy	-3997
▁novel	-3998
▁attach	-3999
▁Dan	-4000
▁happier	-4001
▁allowed	-4002
▁letting	-4003
▁bathrobe	-4004
▁birdcage	-4005
▁rake	-4006
▁snuggled	-4007
eterin	-4008
▁trail	-4009
▁saving	-4010
eterinarian	-4011
iction	-4012
▁drain	-4013
▁chance	-4014
▁knows	-4015
▁lawy	-4016
▁Pipp	-4017
render	-4018
▁veterinarian	-4019
▁shaking	-4020
▁starting	-4021
▁hanger	-4022
ictionary	-4023
asp	-4024
▁fuel	-4025
▁invite	-4026
▁automobile	-4027
mbol	-4028
There	-4029
▁oasis	-4030
rod	-4031
▁meas	-4032
apers	-4033
▁olive	-4034
▁reve	-4035
▁introd	-4036
▁symbol	-4037
▁trains	-4038
mend	-4039
▁prepare	-4040
▁lemonade	-4041
▁problems	-4042
▁raining	-4043
▁fishing	-4044
▁struggling	-4045
▁nobody	-4046
uckily	-4047
commend	-4048
▁lawn	-4049
▁edge	-4050
xy	-4051
▁reveal	-4052
▁Sque	-4053
▁calend	-4054
▁classroom	-4055
▁recommend	-4056
▁human	-4057
▁hut	-4058
▁discu	-4059
riger	-4060
▁regret	-4061
rigerator	-4062
▁Frog	-4063
▁socks	-4064
▁Eventually	-4065
▁content	-4066
▁refrigerator	-4067
▁cups	-4068
▁easily	-4069
▁chickens	-4070
▁strawberries	-4071
▁raz	-4072
▁father	-4073
▁airplane	-4074
▁insisted	-4075
▁lawyer	-4076
iform	-4077
▁uniform	-4078
▁calendar	-4079
▁five	-4080
▁waffle	-4081
▁sausage	-4082
ait	-4083
▁lumber	-4084
▁mitten	-4085
▁marched	-4086
▁festival	-4087
▁dictionary	-4088
▁Ba	-4089
▁tease	-4090
▁alarm	-4091
▁sandbox	-4092
▁visited	-4093
leased	-4094
▁yield	-4095
▁float	-4096
▁crib	-4097
▁Joey	-4098
▁belongs	-4099
nit	-4100
▁cliff	-4101
▁buried	-4102
▁sent	-4103
▁remove	-4104
▁creatures	-4105
niture	-4106
▁cell	-4107
▁trade	-4108
▁Sad	-4109
▁stickers	-4110
▁searching	-4111
▁furniture	-4112
▁trusted	-4113
▁replace	-4114
▁reverse	-4115
▁letters	-4116
ded	-4117
▁supply	-4118
Sp	-4119
▁tub	-4120
▁lions	-4121
ne	-4122
▁stom	-4123
▁Before	-4124
Re	-4125
▁roared	-4126
▁file	-4127
▁pinch	-4128
▁Dolly	-4129
▁windows	-4130
▁People	-4131
▁stared	-4132
▁dresses	-4133
▁pressed	-4134
▁during	-4135
▁waste	-4136
▁panic	-4137
▁razor	-4138
▁collection	-4139
▁billboard	-4140
mand	-4141
▁pair	-4142
▁holes	-4143
▁blowing	-4144
▁junk	-4145
▁bet	-4146
▁conf	-4147
▁Mummy	-4148
aspoon	-4149
▁patiently	-4150
aches	-4151
▁sneezed	-4152
▁ignore	-4153
▁handed	-4154
▁quiz	-4155
▁player	-4156
▁surrender	-4157
▁tuna	-4158
▁whip	-4159
▁OK	-4160
▁steps	-4161
▁teaspoon	-4162
▁knob	-4163
▁rail	-4164
▁Would	-4165
ium	-4166
▁country	-4167
▁perfectly	-4168
▁papers	-4169
▁fla	-4170
▁difference	-4171
▁ped	-4172
▁above	-4173
▁language	-4174
etch	-4175
quest	-4176
▁feelings	-4177
▁Ted	-4178
rec	-4179
Bye	-4180
▁lie	-4181
▁Bessie	-4182
▁applau	-4183
▁sprayed	-4184
▁cur	-4185
▁leaned	-4186
▁argue	-4187
▁stable	-4188
▁request	-4189
▁Ru	-4190
▁accept	-4191
▁mod	-4192
son	-4193
▁rules	-4194
▁stretched	-4195
▁bumped	-4196
▁lic	-4197
▁respons	-4198
Your	-4199
He	-4200
ays	-4201
▁chose	-4202
▁scratch	-4203
▁hate	-4204
▁baked	-4205
▁shoulder	-4206
▁seeing	-4207
▁page	-4208
▁peek	-4209
▁unite	-4210
▁inf	-4211
wards	-4212
ding	-4213
▁snap	-4214
ricane	-4215
Wait	-4216
▁Birdy	-4217
▁Alice	-4218
▁yucky	-4219
▁buckle	-4220
▁burned	-4221
reci	-4222
▁firef	-4223
▁happens	-4224
ison	-4225
▁son	-4226
▁destroyed	-4227
▁cared	-4228
▁apron	-4229
uack	-4230
▁appreci	-4231
▁jail	-4232
ucture	-4233
▁bikes	-4234
▁ended	-4235
▁license	-4236
▁structure	-4237
▁admire	-4238
▁weap	-4239
▁ga	-4240
cted	-4241
▁incre	-4242
▁poked	-4243
▁throwing	-4244
▁Co	-4245
inked	-4246
astic	-4247
hood	-4248
▁fought	-4249
eor	-4250
Sue	-4251
▁Sadly	-4252
adium	-4253
▁stadium	-4254
ulu	-4255
▁attention	-4256
▁suffer	-4257
mm	-4258
▁demand	-4259
▁ahead	-4260
aring	-4261
▁proudly	-4262
▁hurricane	-4263
▁caring	-4264
▁vac	-4265
vest	-4266
▁laughs	-4267
▁berry	-4268
igi	-4269
▁digg	-4270
▁lands	-4271
▁valley	-4272
▁Harry	-4273
▁Luckily	-4274
▁falls	-4275
▁digging	-4276
▁restore	-4277
▁ranch	-4278
▁protec	-4279
ecause	-4280
▁shone	-4281
▁vehicle	-4282
▁sum	-4283
▁pancakes	-4284
▁news	-4285
▁worth	-4286
▁Here	-4287
▁wine	-4288
▁kneel	-4289
▁Lulu	-4290
▁shrugged	-4291
Is	-4292
▁thumb	-4293
▁mall	-4294
▁blinked	-4295
▁counter	-4296
anges	-4297
▁mystery	-4298
▁Susie	-4299
enny	-4300
▁sew	-4301
▁raise	-4302
▁older	-4303
▁winning	-4304
eorge	-4305
▁myself	-4306
▁spade	-4307
▁mineral	-4308
elcome	-4309
▁toe	-4310
▁guy	-4311
▁Squeaky	-4312
▁closely	-4313
▁fields	-4314
ipping	-4315
▁quietly	-4316
uggage	-4317
▁watered	-4318
rise	-4319
▁twirled	-4320
▁model	-4321
ips	-4322
▁mention	-4323
▁known	-4324
▁flood	-4325
▁capt	-4326
▁Mick	-4327
▁summer	-4328
▁skill	-4329
▁luggage	-4330
▁brothers	-4331
emember	-4332
▁provide	-4333
▁grape	-4334
▁Hoppy	-4335
▁sunrise	-4336
Spot	-4337
▁fetch	-4338
They	-4339
▁poppy	-4340
▁Where	-4341
▁matches	-4342
▁exercise	-4343
▁Binky	-4344
▁oats	-4345
▁officer	-4346
noon	-4347
▁Tina	-4348
▁squeeze	-4349
▁cartoons	-4350
▁afternoon	-4351
▁cham	-4352
▁marbles	-4353
▁planes	-4354
▁peanuts	-4355
?".	-4356
▁Pippin	-4357
▁Next	-4358
▁hurting	-4359
▁plastic	-4360
▁warn	-4361
▁Charl	-4362
▁enter	-4363
▁breathe	-4364
zag	-4365
▁port	-4366
▁rabbits	-4367
▁splashing	-4368
▁claw	-4369
vet	-4370
cus	-4371
aked	-4372
thank	-4373
▁invest	-4374
▁expect	-4375
▁investig	-4376
▁imagination	-4377
▁Mickey	-4378
▁chamber	-4379
igzag	-4380
oby	-4381
▁evening	-4382
▁encouraged	-4383
quake	-4384
▁Buzzy	-4385
▁zoomed	-4386
▁harbor	-4387
▁vacation	-4388
lid	-4389
▁sniffed	-4390
▁investigate	-4391
▁kinds	-4392
▁discuss	-4393
▁prop	-4394
ari	-4395
sity	-4396
▁Betty	-4397
▁earthquake	-4398
uct	-4399
▁pages	-4400
lest	-4401
rmomet	-4402
▁holid	-4403
▁beauty	-4404
▁horses	-4405
▁squeezed	-4406
ooped	-4407
▁steam	-4408
▁slipper	-4409
▁fireworks	-4410
rmometer	-4411
▁shivering	-4412
▁menu	-4413
ement	-4414
▁slippery	-4415
ived	-4416
▁ribbon	-4417
▁repeat	-4418
▁sparkled	-4419
icorn	-4420
▁unicorn	-4421
▁placed	-4422
ups	-4423
▁captain	-4424
low	-4425
▁daisy	-4426
▁pad	-4427
▁chirped	-4428
▁leak	-4429
▁sailing	-4430
▁mass	-4431
▁believed	-4432
▁Johnson	-4433
▁thermometer	-4434
▁infant	-4435
▁examine	-4436
▁beans	-4437
▁names	-4438
▁sorts	-4439
▁weapon	-4440
▁tour	-4441
▁aw	-4442
▁Toby	-4443
ety	-4444
▁rooms	-4445
▁acorns	-4446
▁comf	-4447
▁sport	-4448
▁Kim	-4449
▁row	-4450
▁treasures	-4451
▁Y	-4452
▁poison	-4453
▁shovel	-4454
▁ener	-4455
atched	-4456
▁Pinky	-4457
▁flavor	-4458
▁waving	-4459
▁spending	-4460
▁Cl	-4461
▁score	-4462
▁Hel	-4463
▁event	-4464
▁agree	-4465
mble	-4466
▁beep	-4467
▁frogs	-4468
▁paid	-4469
▁invit	-4470
▁colour	-4471
▁copper	-4472
▁universe	-4473
▁ok	-4474
▁talent	-4475
▁lid	-4476
uture	-4477
▁stud	-4478
▁upstairs	-4479
▁future	-4480
▁settle	-4481
▁oranges	-4482
▁flapped	-4483
▁tremble	-4484
▁brick	-4485
uggles	-4486
▁Mar	-4487
▁ow	-4488
▁freeze	-4489
▁realised	-4490
▁Boun	-4491
▁offer	-4492
▁following	-4493
▁selling	-4494
▁holiday	-4495
▁Charlie	-4496
▁x	-4497
▁opens	-4498
▁safety	-4499
▁equ	-4500
▁chairs	-4501
▁yawned	-4502
▁pup	-4503
▁rhy	-4504
▁sprink	-4505
▁Hoot	-4506
▁explored	-4507
▁wag	-4508
▁scold	-4509
▁prayed	-4510
▁planted	-4511
▁tip	-4512
▁plates	-4513
▁given	-4514
▁received	-4515
ik	-4516
▁sticker	-4517
▁pushing	-4518
▁Finn	-4519
▁pigs	-4520
▁neighborhood	-4521
thm	-4522
▁stops	-4523
▁holds	-4524
boo	-4525
icing	-4526
▁tore	-4527
▁bricks	-4528
▁receive	-4529
▁apart	-4530
▁stomach	-4531
▁respectful	-4532
▁sticky	-4533
ah	-4534
▁observe	-4535
▁claws	-4536
▁cherry	-4537
▁gasped	-4538
uggle	-4539
▁vroom	-4540
▁gain	-4541
▁label	-4542
fa	-4543
▁Bluey	-4544
▁ordered	-4545
▁rang	-4546
ssible	-4547
▁somewhere	-4548
▁safari	-4549
▁university	-4550
▁crashed	-4551
▁twisted	-4552
▁Everywhere	-4553
▁Snuggles	-4554
▁navy	-4555
▁worse	-4556
▁ignored	-4557
▁rhythm	-4558
▁Mike	-4559
▁minute	-4560
ges	-4561
▁buzz	-4562
▁Ow	-4563
▁However	-4564
▁shot	-4565
▁alive	-4566
▁lives	-4567
▁thanks	-4568
▁brain	-4569
▁bother	-4570
▁vanished	-4571
▁doors	-4572
▁writing	-4573
ween	-4574
▁drinking	-4575
▁slip	-4576
Mmm	-4577
▁candles	-4578
▁urge	-4579
▁cakes	-4580
▁between	-4581
▁warning	-4582
▁scattered	-4583
▁shooting	-4584
▁jazz	-4585
▁streng	-4586
▁Sund	-4587
▁bouncing	-4588
▁grocery	-4589
▁palm	-4590
▁pur	-4591
▁strength	-4592
chie	-4593
oodbye	-4594
ffic	-4595
▁allow	-4596
▁catching	-4597
▁dare	-4598
▁bak	-4599
Ow	-4600
looking	-4601
▁inst	-4602
▁energy	-4603
▁mummy	-4604
▁smells	-4605
▁cutting	-4606
oph	-4607
▁wre	-4608
▁appear	-4609
▁Dave	-4610
▁weight	-4611
▁punish	-4612
▁dressed	-4613
▁traffic	-4614
men	-4615
▁soak	-4616
▁forgotten	-4617
▁brighter	-4618
▁crossed	-4619
sit	-4620
▁sofa	-4621
▁Lilly	-4622
▁spots	-4623
ince	-4624
med	-4625
▁Lucky	-4626
▁printer	-4627
mare	-4628
ship	-4629
▁include	-4630
▁jewels	-4631
▁kingdom	-4632
▁parts	-4633
▁responsible	-4634
▁steel	-4635
▁massage	-4636
▁waffles	-4637
▁skills	-4638
▁remain	-4639
ipment	-4640
▁clapping	-4641
▁permit	-4642
▁equipment	-4643
▁oper	-4644
▁nation	-4645
▁trapped	-4646
xygen	-4647
unately	-4648
▁lemons	-4649
▁teaching	-4650
▁tide	-4651
▁frowned	-4652
▁hers	-4653
▁appreciate	-4654
▁Mandy	-4655
▁hist	-4656
angers	-4657
▁During	-4658
sters	-4659
!".	-4660
▁jumps	-4661
▁strangers	-4662
▁history	-4663
▁wagging	-4664
▁presents	-4665
ising	-4666
▁giggle	-4667
▁chewed	-4668
walk	-4669
▁release	-4670
▁sty	-4671
▁married	-4672
▁brightly	-4673
▁nightmare	-4674
▁bouncy	-4675
▁chore	-4676
▁Days	-4677
▁collected	-4678
▁tonight	-4679
▁pirates	-4680
▁Help	-4681
▁dared	-4682
▁second	-4683
▁Froggy	-4684
..	-4685
▁pastel	-4686
▁exper	-4687
▁potatoes	-4688
▁wandered	-4689
▁leather	-4690
▁sidewalk	-4691
▁worms	-4692
Because	-4693
▁web	-4694
ero	-4695
▁burrow	-4696
▁castles	-4697
▁luck	-4698
▁bend	-4699
ib	-4700
▁Chick	-4701
ories	-4702
▁solved	-4703
ecture	-4704
These	-4705
▁entered	-4706
▁yawn	-4707
▁lecture	-4708
▁operation	-4709
▁marching	-4710
utter	-4711
▁breaks	-4712
▁chores	-4713
▁circus	-4714
▁deeper	-4715
▁snowball	-4716
▁Spe	-4717
▁mailman	-4718
Daddy	-4719
ishing	-4720
▁strip	-4721
▁folded	-4722
▁racing	-4723
▁jogging	-4724
▁rush	-4725
▁begged	-4726
▁softly	-4727
▁growled	-4728
▁Jazz	-4729
omed	-4730
▁tomatoes	-4731
▁jogged	-4732
▁pleased	-4733
▁petted	-4734
▁puzzles	-4735
▁blueberry	-4736
▁slice	-4737
agull	-4738
▁pitch	-4739
▁Ra	-4740
▁floating	-4741
▁underground	-4742
▁lip	-4743
fortunately	-4744
▁Soph	-4745
bug	-4746
▁sip	-4747
▁starts	-4748
allow	-4749
▁cheek	-4750
▁network	-4751
▁heat	-4752
Welcome	-4753
▁Pat	-4754
nies	-4755
▁tracks	-4756
▁welcom	-4757
iers	-4758
▁wisdom	-4759
▁Bill	-4760
▁measured	-4761
iki	-4762
▁budge	-4763
▁mice	-4764
umble	-4765
▁price	-4766
▁bent	-4767
▁seagull	-4768
▁ali	-4769
▁memory	-4770
▁spaceship	-4771
▁Big	-4772
▁increase	-4773
▁moves	-4774
race	-4775
sing	-4776
▁emer	-4777
▁encourage	-4778
▁Bow	-4779
▁invitation	-4780
▁scolded	-4781
oved	-4782
▁stole	-4783
▁elephants	-4784
▁memories	-4785
▁pulling	-4786
▁kitty	-4787
▁manage	-4788
▁spill	-4789
edn	-4790
▁glo	-4791
ednesday	-4792
▁spike	-4793
▁unh	-4794
▁Wednesday	-4795
▁vel	-4796
▁straight	-4797
vour	-4798
od	-4799
▁easier	-4800
▁oxygen	-4801
▁velvet	-4802
▁hadn	-4803
▁appro	-4804
▁soldiers	-4805
▁quack	-4806
use	-4807
▁introduce	-4808
▁raised	-4809
▁zigzag	-4810
hell	-4811
▁heads	-4812
▁petals	-4813
▁Coco	-4814
▁anytime	-4815
▁Lee	-4816
▁prune	-4817
▁finds	-4818
omeday	-4819
▁mentioned	-4820
▁blankets	-4821
▁ladybug	-4822
▁simp	-4823
ission	-4824
sterday	-4825
esterday	-4826
▁bones	-4827
▁gloves	-4828
▁pedal	-4829
▁prett	-4830
ola	-4831
▁flies	-4832
▁someday	-4833
▁weeks	-4834
▁permission	-4835
▁Sunday	-4836
▁muffins	-4837
▁dried	-4838
▁Kiki	-4839
▁unhappy	-4840
essed	-4841
▁favour	-4842
▁seashell	-4843
▁breaking	-4844
Yuck	-4845
▁unlocked	-4846
▁Speedy	-4847
▁wreck	-4848
ucked	-4849
▁recognize	-4850
▁disagreed	-4851
▁firefight	-4852
▁ourselves	-4853
▁isn	-4854
▁Olive	-4855
▁printed	-4856
▁shouting	-4857
uesday	-4858
▁below	-4859
▁shouts	-4860
▁Sparky	-4861
▁collecting	-4862
▁Pa	-4863
▁Tuesday	-4864
▁doctors	-4865
▁favourite	-4866
lex	-4867
▁rested	-4868
▁landscape	-4869
▁Cra	-4870
ab	-4871
ides	-4872
▁sir	-4873
▁died	-4874
▁greedy	-4875
▁succeeded	-4876
▁Owl	-4877
ury	-4878
▁hills	-4879
▁foods	-4880
▁furt	-4881
▁points	-4882
▁remained	-4883
Yum	-4884
▁strike	-4885
▁resting	-4886
▁possible	-4887
Not	-4888
ored	-4889
▁practicing	-4890
▁muscles	-4891
Ann	-4892
▁peaches	-4893
▁attached	-4894
▁Lola	-4895
▁escap	-4896
▁company	-4897
▁further	-4898
▁gazed	-4899
ddy	-4900
rage	-4901
▁whisper	-4902
▁drinks	-4903
One	-4904
▁press	-4905
▁snail	-4906
▁punished	-4907
▁style	-4908
▁teasing	-4909
▁Have	-4910
▁Paul	-4911
▁wigg	-4912
▁balan	-4913
▁boo	-4914
▁heel	-4915
▁welcomed	-4916
▁lick	-4917
▁pears	-4918
▁snapped	-4919
▁waist	-4920
▁struggled	-4921
eze	-4922
▁surround	-4923
▁cape	-4924
▁guys	-4925
▁floated	-4926
▁gran	-4927
▁groceries	-4928
▁sudden	-4929
▁courage	-4930
oe	-4931
ution	-4932
▁prunes	-4933
▁whistled	-4934
▁grant	-4935
▁seats	-4936
▁trave	-4937
▁crash	-4938
ncle	-4939
▁cub	-4940
▁mama	-4941
▁urged	-4942
pted	-4943
osed	-4944
▁See	-4945
▁ble	-4946
▁blink	-4947
▁grabs	-4948
Would	-4949
ishes	-4950
▁season	-4951
▁lily	-4952
▁hesit	-4953
▁Hop	-4954
igned	-4955
▁Alex	-4956
▁Finny	-4957
▁emergen	-4958
▁properly	-4959
▁muddy	-4960
▁fashion	-4961
▁accepted	-4962
▁pau	-4963
▁laught	-4964
ux	-4965
hest	-4966
▁image	-4967
Ex	-4968
▁wob	-4969
▁hearts	-4970
▁slap	-4971
▁laughter	-4972
▁laid	-4973
izing	-4974
▁sigh	-4975
▁situ	-4976
▁candies	-4977
▁mittens	-4978
▁pies	-4979
Anna	-4980
▁tong	-4981
▁Danny	-4982
▁Penny	-4983
▁lung	-4984
eep	-4985
▁chewing	-4986
▁recognized	-4987
▁pinched	-4988
▁An	-4989
▁lux	-4990
▁demanded	-4991
▁olives	-4992
▁granted	-4993
▁delighted	-4994
act	-4995
▁Fox	-4996
▁refre	-4997
▁pulls	-4998
▁paused	-4999
▁decorations	-5000
▁protected	-5001
▁shakes	-5002
▁escaped	-5003
▁revealed	-5004
▁wiggle	-5005
▁contest	-5006
▁exit	-5007
▁struggle	-5008
▁crow	-5009
▁setting	-5010
▁doggy	-5011
▁mixing	-5012
amb	-5013
▁Squ	-5014
▁breeze	-5015
▁colourful	-5016
Ready	-5017
▁shoulders	-5018
▁tug	-5019
▁gained	-5020
▁rides	-5021
Bun	-5022
▁struck	-5023
▁stitch	-5024
▁supposed	-5025
▁slapped	-5026
▁barks	-5027
▁pupil	-5028
▁Bounce	-5029
▁piggy	-5030
▁melted	-5031
▁meow	-5032
▁turning	-5033
▁bringing	-5034
▁hon	-5035
▁flap	-5036
To	-5037
▁Annie	-5038
Ew	-5039
▁luxury	-5040
▁pets	-5041
▁simple	-5042
▁sausages	-5043
▁skipping	-5044
▁apologize	-5045
▁Did	-5046
▁flat	-5047
▁ideas	-5048
▁tastes	-5049
umes	-5050
▁waiter	-5051
▁west	-5052
▁Sophie	-5053
▁created	-5054
▁spiders	-5055
izes	-5056
▁golden	-5057
▁burning	-5058
▁Or	-5059
cuse	-5060
▁scoop	-5061
▁drops	-5062
▁cuddled	-5063
Sh	-5064
▁tongue	-5065
▁emergency	-5066
▁sprinkles	-5067
▁shopping	-5068
▁instr	-5069
▁Whenever	-5070
▁stealing	-5071
And	-5072
▁disagree	-5073
▁brings	-5074
Excuse	-5075
▁zipped	-5076
▁oh	-5077
▁applaud	-5078
▁inch	-5079
▁solution	-5080
▁Bee	-5081
angled	-5082
▁toes	-5083
▁pushes	-5084
▁pause	-5085
▁costumes	-5086
▁celebrated	-5087
▁opin	-5088
Mia	-5089
▁experience	-5090
▁disturbed	-5091
anny	-5092
heart	-5093
▁agre	-5094
▁Ruby	-5095
▁keys	-5096
▁scaring	-5097
▁Is	-5098
▁passing	-5099
▁sliding	-5100
▁sorting	-5101
▁prepared	-5102
▁eagerly	-5103
kins	-5104
▁singer	-5105
▁chirping	-5106
▁coats	-5107
▁pillows	-5108
▁acted	-5109
ippy	-5110
joyed	-5111
▁movies	-5112
▁End	-5113
Remember	-5114
▁overjoyed	-5115
▁approached	-5116
▁Sk	-5117
riage	-5118
▁gifts	-5119
apa	-5120
ites	-5121
▁ago	-5122
▁rescued	-5123
▁bleed	-5124
▁shopkeeper	-5125
▁scratched	-5126
▁bravely	-5127
▁stamps	-5128
▁ringing	-5129
ictory	-5130
▁peel	-5131
▁herbs	-5132
bies	-5133
▁Dory	-5134
▁Tuna	-5135
▁pearl	-5136
▁Chr	-5137
▁monsters	-5138
▁stair	-5139
▁radishes	-5140
▁Who	-5141
▁contro	-5142
▁swooped	-5143
▁Sharing	-5144
▁ripped	-5145
▁studied	-5146
▁Ro	-5147
▁gotten	-5148
▁Baa	-5149
▁frosting	-5150
▁vanish	-5151
▁winner	-5152
▁sweetheart	-5153
▁Rock	-5154
▁Robby	-5155
▁Hen	-5156
▁guessed	-5157
▁Always	-5158
▁chips	-5159
▁Tilly	-5160
Will	-5161
▁alien	-5162
▁fed	-5163
▁twigs	-5164
▁relaxed	-5165
▁mountains	-5166
edding	-5167
▁east	-5168
▁nails	-5169
▁Rabbit	-5170
▁tremb	-5171
▁continue	-5172
astles	-5173
▁signs	-5174
▁dinosaurs	-5175
rin	-5176
▁brus	-5177
▁sandcastles	-5178
▁studying	-5179
▁zookeeper	-5180
▁touching	-5181
ino	-5182
reen	-5183
▁cupcakes	-5184
▁camping	-5185
▁result	-5186
▁babies	-5187
▁tex	-5188
▁Henry	-5189
nfortunately	-5190
▁texture	-5191
▁bloomed	-5192
▁crumb	-5193
ction	-5194
▁whistling	-5195
apping	-5196
▁achie	-5197
▁control	-5198
▁neighbors	-5199
Woof	-5200
year	-5201
▁First	-5202
ctar	-5203
▁nectar	-5204
▁throws	-5205
▁rul	-5206
▁Baby	-5207
▁wedding	-5208
▁none	-5209
▁Bubb	-5210
▁lollipops	-5211
When	-5212
▁victory	-5213
▁sneak	-5214
▁comforted	-5215
ging	-5216
▁famil	-5217
▁loose	-5218
▁brand	-5219
▁realize	-5220
▁bank	-5221
idey	-5222
usty	-5223
▁homework	-5224
▁videos	-5225
▁understanding	-5226
▁Su	-5227
▁Bubba	-5228
▁quite	-5229
▁comple	-5230
▁eagle	-5231
▁purred	-5232
▁dire	-5233
▁settled	-5234
iggy	-5235
▁Papa	-5236
▁weeping	-5237
▁recorded	-5238
▁sorted	-5239
▁bunch	-5240
▁buzzing	-5241
▁Spidey	-5242
▁acting	-5243
▁tucked	-5244
▁Everything	-5245
Sometimes	-5246
anta	-5247
▁importance	-5248
▁bun	-5249
▁paints	-5250
▁matched	-5251
araway	-5252
▁sizes	-5253
▁plays	-5254
▁threat	-5255
▁markers	-5256
urprise	-5257
▁flutter	-5258
isty	-5259
▁dent	-5260
▁faraway	-5261
▁decorated	-5262
▁calls	-5263
▁Me	-5264
choo	-5265
inkle	-5266
▁marriage	-5267
▁Keep	-5268
▁Tony	-5269
ud	-5270
▁lines	-5271
▁wanting	-5272
▁introduc	-5273
▁drag	-5274
Just	-5275
▁youth	-5276
▁Follow	-5277
▁hated	-5278
▁weighed	-5279
▁machines	-5280
riend	-5281
▁Santa	-5282
▁aff	-5283
Sara	-5284
▁pouring	-5285
▁lined	-5286
allen	-5287
▁sore	-5288
▁challen	-5289
▁shined	-5290
▁removed	-5291
▁actions	-5292
▁learnt	-5293
▁tickle	-5294
▁blood	-5295
▁playtime	-5296
▁broom	-5297
▁confl	-5298
▁neighb	-5299
▁melting	-5300
▁These	-5301
▁buildings	-5302
▁competition	-5303
▁amazement	-5304
▁headed	-5305
▁Dog	-5306
▁lips	-5307
Lucy	-5308
▁parties	-5309
▁Kate	-5310
▁conflict	-5311
▁roots	-5312
▁expected	-5313
na	-5314
▁zero	-5315
▁Someone	-5316
▁Mill	-5317
▁naps	-5318
▁weren	-5319
▁measuring	-5320
▁worker	-5321
irring	-5322
▁creation	-5323
▁curtains	-5324
ents	-5325
▁Ste	-5326
▁pra	-5327
right	-5328
ifi	-5329
meal	-5330
▁cuddle	-5331
▁patterns	-5332
▁kisses	-5333
▁follows	-5334
▁magician	-5335
▁tune	-5336
▁Squirrel	-5337
▁organizing	-5338
Surprise	-5339
▁kicking	-5340
▁oatmeal	-5341
▁yelling	-5342
▁bowed	-5343
▁admir	-5344
▁hopes	-5345
▁silence	-5346
aded	-5347
▁Out	-5348
▁guns	-5349
▁situation	-5350
coat	-5351
▁cones	-5352
▁bunnies	-5353
▁kneeled	-5354
▁stripes	-5355
▁Fifi	-5356
▁regretted	-5357
▁hi	-5358
▁soaked	-5359
▁destination	-5360
▁raincoat	-5361
▁served	-5362
▁Wigg	-5363
▁sneaky	-5364
▁staying	-5365
▁Maria	-5366
▁embarrass	-5367
▁dam	-5368
▁Mag	-5369
ranny	-5370
▁healed	-5371
▁shed	-5372
▁wherever	-5373
uackers	-5374
zing	-5375
▁staring	-5376
▁Elly	-5377
▁argued	-5378
▁seems	-5379
▁stirring	-5380
▁beat	-5381
▁refreshed	-5382
Mr	-5383
▁soared	-5384
Meow	-5385
▁folding	-5386
▁tangled	-5387
▁pupp	-5388
please	-5389
▁Millie	-5390
▁bye	-5391
izard	-5392
▁owned	-5393
▁crumbs	-5394
▁brushed	-5395
▁treehouse	-5396
▁bang	-5397
Ch	-5398
▁observed	-5399
▁Woo	-5400
▁Aunt	-5401
▁noon	-5402
▁Mor	-5403
Really	-5404
gie	-5405
▁arrive	-5406
▁concer	-5407
▁paintings	-5408
Happy	-5409
▁bites	-5410
▁losing	-5411
▁James	-5412
▁Ex	-5413
anes	-5414
▁twisty	-5415
sted	-5416
▁introduced	-5417
▁ruler	-5418
gers	-5419
▁ours	-5420
▁belly	-5421
▁applauded	-5422
Bob	-5423
▁aren	-5424
▁since	-5425
▁wags	-5426
do	-5427
va	-5428
▁forgi	-5429
▁Christ	-5430
▁pastries	-5431
▁Slow	-5432
ring	-5433
▁piles	-5434
▁Remember	-5435
▁Moral	-5436
▁decision	-5437
▁keeps	-5438
▁attack	-5439
",	-5440
ther	-5441
▁opinion	-5442
▁released	-5443
▁Each	-5444
▁workers	-5445
▁ruin	-5446
▁dragons	-5447
▁fears	-5448
zen	-5449
▁ache	-5450
aved	-5451
rr	-5452
▁repeated	-5453
▁Crabby	-5454
mas	-5455
▁wizard	-5456
▁completed	-5457
▁shadows	-5458
▁firefighters	-5459
reat	-5460
▁Wally	-5461
▁artist	-5462
▁tickets	-5463
Yummy	-5464
▁dentist	-5465
▁reaches	-5466
▁hurried	-5467
▁bumpy	-5468
jam	-5469
▁spoons	-5470
Al	-5471
▁mister	-5472
▁Christmas	-5473
▁Sandy	-5474
▁girls	-5475
▁Bo	-5476
antly	-5477
▁area	-5478
▁works	-5479
▁bakery	-5480
▁teased	-5481
▁shock	-5482
▁caused	-5483
▁protecting	-5484
▁King	-5485
▁kindly	-5486
▁duckling	-5487
▁frozen	-5488
▁answers	-5489
▁crunch	-5490
iately	-5491
▁zooming	-5492
mother	-5493
▁firemen	-5494
ales	-5495
▁planets	-5496
▁chef	-5497
▁grin	-5498
▁examined	-5499
▁beds	-5500
▁sits	-5501
▁baths	-5502
▁bedtime	-5503
▁recipe	-5504
▁Earth	-5505
▁moments	-5506
▁licks	-5507
▁itchy	-5508
▁prints	-5509
▁goodnight	-5510
▁highest	-5511
▁May	-5512
▁requested	-5513
▁twin	-5514
▁exact	-5515
▁ranger	-5516
▁pebbles	-5517
uggy	-5518
▁Lizzy	-5519
▁Pepper	-5520
▁potion	-5521
▁glowed	-5522
▁praised	-5523
▁motion	-5524
▁neighbour	-5525
len	-5526
▁warmth	-5527
jamas	-5528
▁desert	-5529
▁yesterday	-5530
▁princesses	-5531
imy	-5532
▁prettiest	-5533
▁Che	-5534
▁achieve	-5535
▁Liz	-5536
▁hitting	-5537
▁admiring	-5538
▁afford	-5539
▁pride	-5540
▁Exc	-5541
ities	-5542
▁bleeding	-5543
▁curled	-5544
▁cracked	-5545
▁six	-5546
▁buying	-5547
▁Dino	-5548
▁Excited	-5549
▁scru	-5550
▁marks	-5551
▁gathering	-5552
▁stro	-5553
▁Wooly	-5554
▁Snowball	-5555
▁pajamas	-5556
▁marked	-5557
▁confident	-5558
▁secrets	-5559
▁spraying	-5560
▁gaze	-5561
▁happiest	-5562
uddles	-5563
▁smal	-5564
▁photos	-5565
▁agreement	-5566
▁hits	-5567
▁baker	-5568
▁wrist	-5569
▁smallest	-5570
uest	-5571
▁Kat	-5572
▁Rocky	-5573
▁recommended	-5574
▁nicer	-5575
oming	-5576
▁signed	-5577
▁promises	-5578
cious	-5579
▁padd	-5580
▁comfy	-5581
▁tallest	-5582
▁sunlight	-5583
iren	-5584
urry	-5585
▁spit	-5586
▁concert	-5587
▁siren	-5588
▁climbs	-5589
▁mouths	-5590
▁stolen	-5591
ongo	-5592
ues	-5593
▁wink	-5594
▁usual	-5595
▁voices	-5596
▁warnings	-5597
▁beside	-5598
▁bravery	-5599
▁included	-5600
Next	-5601
ots	-5602
▁parked	-5603
▁cubes	-5604
▁guest	-5605
▁sparkles	-5606
▁poems	-5607
▁Wiggly	-5608
▁sting	-5609
▁librarian	-5610
▁fasc	-5611
▁Clara	-5612
▁sisters	-5613
▁trembling	-5614
▁onions	-5615
▁visiting	-5616
osity	-5617
▁exactly	-5618
▁coloring	-5619
eah	-5620
▁Mo	-5621
▁eff	-5622
▁El	-5623
▁Boo	-5624
▁pedals	-5625
▁strings	-5626
▁wid	-5627
▁Bongo	-5628
▁sparkle	-5629
▁downstairs	-5630
Ok	-5631
▁deser	-5632
▁Ab	-5633
▁cash	-5634
▁trips	-5635
▁health	-5636
▁Chicky	-5637
▁Its	-5638
arac	-5639
▁powers	-5640
▁contain	-5641
▁ple	-5642
▁choices	-5643
▁grey	-5644
▁fascin	-5645
▁tricked	-5646
indy	-5647
Ha	-5648
▁immed	-5649
▁Jul	-5650
▁polished	-5651
aster	-5652
▁cause	-5653
▁Slowly	-5654
▁traveled	-5655
▁including	-5656
▁immediately	-5657
▁goals	-5658
▁slimy	-5659
▁precious	-5660
aracter	-5661
▁loving	-5662
▁pencils	-5663
▁character	-5664
hello	-5665
▁theirs	-5666
▁dolphins	-5667
▁Suzy	-5668
affes	-5669
ados	-5670
▁families	-5671
▁rubbing	-5672
▁avo	-5673
▁packing	-5674
▁giraffes	-5675
ids	-5676
dies	-5677
▁cho	-5678
▁Hootie	-5679
▁napping	-5680
▁hesitant	-5681
▁sticking	-5682
▁Both	-5683
ility	-5684
Yeah	-5685
▁balancing	-5686
▁Dr	-5687
▁knights	-5688
▁skunk	-5689
▁polishing	-5690
▁da	-5691
vers	-5692
▁scra	-5693
▁beard	-5694
▁Maggie	-5695
▁lied	-5696
▁avocados	-5697
ppers	-5698
▁effort	-5699
▁poking	-5700
▁matching	-5701
▁snowballs	-5702
▁Buggy	-5703
▁wooden	-5704
▁Steve	-5705
▁behaved	-5706
▁grandmother	-5707
riends	-5708
▁crunchy	-5709
▁lap	-5710
▁accom	-5711
Have	-5712
▁Star	-5713
▁cashier	-5714
▁marker	-5715
▁tablet	-5716
▁snuck	-5717
▁scrubbed	-5718
▁scooped	-5719
▁becoming	-5720
omething	-5721
▁ornaments	-5722
▁shelves	-5723
▁ann	-5724
▁Mon	-5725
▁lets	-5726
▁accompl	-5727
▁cous	-5728
She	-5729
▁eight	-5730
▁Birdie	-5731
▁delivered	-5732
uick	-5733
ivity	-5734
▁hardly	-5735
▁prayer	-5736
▁usually	-5737
isten	-5738
▁leader	-5739
▁opening	-5740
▁snatched	-5741
roken	-5742
▁bars	-5743
▁stain	-5744
▁alright	-5745
▁safer	-5746
▁clowns	-5747
▁stare	-5748
▁beamed	-5749
▁loaded	-5750
▁giggling	-5751
ppa	-5752
ences	-5753
▁fever	-5754
▁pockets	-5755
▁talented	-5756
▁dollhouse	-5757
▁ni	-5758
▁soaring	-5759
▁curly	-5760
▁pastels	-5761
Amy	-5762
die	-5763
sequ	-5764
▁surrounded	-5765
eed	-5766
▁consequ	-5767
▁batteries	-5768
▁wrapping	-5769
▁woof	-5770
▁rainbows	-5771
iggie	-5772
▁Oink	-5773
▁swims	-5774
▁growling	-5775
shing	-5776
broken	-5777
▁knelt	-5778
▁fairies	-5779
▁crabs	-5780
▁hugging	-5781
▁praying	-5782
▁beg	-5783
▁conv	-5784
▁replaced	-5785
▁Po	-5786
enty	-5787
▁consequences	-5788
indro	-5789
▁raindro	-5790
nie	-5791
▁chop	-5792
▁temper	-5793
ishy	-5794
oys	-5795
bbled	-5796
▁heartbroken	-5797
▁brushes	-5798
▁dusty	-5799
▁instruct	-5800
▁watches	-5801
▁fascinated	-5802
▁screaming	-5803
▁risk	-5804
▁blocking	-5805
fied	-5806
▁brid	-5807
oto	-5808
brush	-5809
▁fault	-5810
▁screams	-5811
using	-5812
▁chat	-5813
▁glitter	-5814
▁paying	-5815
▁wiggled	-5816
▁item	-5817
▁discovery	-5818
fit	-5819
▁towels	-5820
▁colours	-5821
▁snakes	-5822
▁project	-5823
▁Not	-5824
▁Peppa	-5825
▁perched	-5826
▁instructions	-5827
▁limes	-5828
▁least	-5829
▁insects	-5830
▁wondering	-5831
▁thorn	-5832
▁BunBun	-5833
▁Thom	-5834
▁darker	-5835
▁seesaw	-5836
ners	-5837
▁bridges	-5838
▁stretching	-5839
▁surface	-5840
!",	-5841
▁Toto	-5842
▁bodies	-5843
▁blooming	-5844
▁comm	-5845
▁avoid	-5846
tuce	-5847
weet	-5848
▁overcome	-5849
avid	-5850
bage	-5851
▁mane	-5852
neath	-5853
▁Hope	-5854
▁lettuce	-5855
▁challenge	-5856
▁wandering	-5857
▁horns	-5858
▁garbage	-5859
▁temperature	-5860
▁reply	-5861
▁improved	-5862
▁Prin	-5863
▁adult	-5864
▁remembering	-5865
▁wadd	-5866
lowers	-5867
▁sides	-5868
oodnight	-5869
▁crackers	-5870
▁whatever	-5871
isies	-5872
▁Milly	-5873
▁Thomas	-5874
▁outfit	-5875
▁steep	-5876
▁tigers	-5877
guing	-5878
river	-5879
▁Foxy	-5880
▁Fe	-5881
▁heroes	-5882
▁Something	-5883
▁sparkling	-5884
▁seashells	-5885
icked	-5886
▁bead	-5887
▁daisies	-5888
▁Chickie	-5889
▁David	-5890
▁complained	-5891
Mama	-5892
▁Water	-5893
bers	-5894
▁pots	-5895
Today	-5896
▁smiley	-5897
▁quacked	-5898
▁cott	-5899
Little	-5900
mel	-5901
▁patience	-5902
▁Thanks	-5903
▁mushrooms	-5904
▁defe	-5905
▁sadness	-5906
▁arguing	-5907
▁clearing	-5908
▁decorating	-5909
avi	-5910
een	-5911
hive	-5912
▁Cla	-5913
▁beehive	-5914
▁bottles	-5915
▁stem	-5916
▁sweets	-5917
▁penguins	-5918
▁dipped	-5919
▁matters	-5920
Jo	-5921
▁boom	-5922
▁shirts	-5923
▁coc	-5924
▁obe	-5925
▁ribbons	-5926
!'	-5927
uctantly	-5928
▁waits	-5929
▁raindrops	-5930
▁Happy	-5931
▁united	-5932
▁awe	-5933
▁eats	-5934
▁pumpkins	-5935
▁drums	-5936
▁snowmen	-5937
▁inviting	-5938
▁creating	-5939
▁scales	-5940
▁watering	-5941
▁quarreling	-5942
▁thrilled	-5943
▁recording	-5944
olph	-5945
▁cough	-5946
▁filling	-5947
▁Afterwards	-5948
go	-5949
▁heav	-5950
▁flown	-5951
atty	-5952
opsy	-5953
ason	-5954
ops	-5955
▁diving	-5956
▁hen	-5957
▁dads	-5958
▁peppers	-5959
oline	-5960
▁glasses	-5961
▁delivering	-5962
▁Frank	-5963
Boo	-5964
▁tim	-5965
▁adding	-5966
▁separated	-5967
stick	-5968
▁wond	-5969
ept	-5970
▁helpers	-5971
▁awake	-5972
▁obey	-5973
▁rocked	-5974
chy	-5975
rip	-5976
▁scored	-5977
▁rust	-5978
▁mints	-5979
vant	-5980
▁Princess	-5981
▁suffering	-5982
▁lamb	-5983
▁prettier	-5984
▁reminder	-5985
▁reluctantly	-5986
▁roses	-5987
▁stumble	-5988
▁stung	-5989
▁Yesterday	-5990
▁tugged	-5991
▁responsib	-5992
▁swept	-5993
▁finishing	-5994
▁sewed	-5995
▁swall	-5996
▁swallowed	-5997
hind	-5998
eling	-5999
Always	-6000
▁forgetting	-6001
▁Nan	-6002
▁mission	-6003
ambi	-6004
▁sings	-6005
▁flavors	-6006
achel	-6007
▁picnics	-6008
▁aud	-6009
▁meals	-6010
▁cuddly	-6011
▁underneath	-6012
itches	-6013
▁Joy	-6014
▁beads	-6015
▁firefly	-6016
▁performed	-6017
▁sneaked	-6018
▁cheering	-6019
▁Bambi	-6020
Wh	-6021
...	-6022
▁logs	-6023
▁Behind	-6024
▁Rachel	-6025
▁flames	-6026
▁colored	-6027
▁balanced	-6028
embers	-6029
▁roaring	-6030
▁remembers	-6031
▁sway	-6032
▁thro	-6033
▁sports	-6034
▁Friends	-6035
▁throat	-6036
▁Pl	-6037
▁Flopsy	-6038
▁peeking	-6039
▁wonders	-6040
▁crossing	-6041
▁wound	-6042
▁provided	-6043
bric	-6044
▁cond	-6045
▁dreamt	-6046
▁fabric	-6047
▁reun	-6048
▁shivered	-6049
▁paddled	-6050
▁explorer	-6051
▁bare	-6052
▁villag	-6053
▁Lion	-6054
▁Watch	-6055
▁insist	-6056
▁cousin	-6057
ashed	-6058
▁hissed	-6059
▁surroundings	-6060
▁sled	-6061
▁gears	-6062
▁Bouncy	-6063
▁Feeling	-6064
▁crowd	-6065
▁genie	-6066
Jack	-6067
cers	-6068
Kitty	-6069
▁Katie	-6070
▁complaining	-6071
itted	-6072
▁sale	-6073
▁tiss	-6074
alloween	-6075
bbing	-6076
▁Choo	-6077
▁marsh	-6078
▁third	-6079
▁Halloween	-6080
▁imagining	-6081
▁indeed	-6082
▁audience	-6083
▁Sky	-6084
mallow	-6085
▁ais	-6086
▁valued	-6087
▁curiosity	-6088
iles	-6089
▁supplies	-6090
▁marshmallow	-6091
▁buckets	-6092
▁muscle	-6093
▁Pin	-6094
plash	-6095
▁tramp	-6096
▁Ray	-6097
▁behavi	-6098
'.	-6099
▁By	-6100
▁proper	-6101
sty	-6102
▁Cr	-6103
crow	-6104
▁sneezing	-6105
Bird	-6106
▁wins	-6107
▁paddle	-6108
▁ast	-6109
▁sweat	-6110
igail	-6111
▁splashes	-6112
▁villagers	-6113
Ah	-6114
per	-6115
▁twink	-6116
▁restored	-6117
▁gems	-6118
▁grandd	-6119
▁peacefully	-6120
▁screwd	-6121
▁superheroes	-6122
▁cans	-6123
▁chip	-6124
▁rocking	-6125
▁tickled	-6126
▁trampoline	-6127
▁celebrating	-6128
▁tasks	-6129
▁untie	-6130
▁winked	-6131
weed	-6132
▁kites	-6133
▁Abigail	-6134
▁million	-6135
▁grinned	-6136
▁Je	-6137
▁feeding	-6138
▁needles	-6139
▁seaweed	-6140
▁minerals	-6141
Or	-6142
ivery	-6143
▁gross	-6144
▁refle	-6145
▁keeper	-6146
▁Rud	-6147
umper	-6148
▁arrows	-6149
▁reunited	-6150
▁screwdriver	-6151
mies	-6152
▁Our	-6153
▁satis	-6154
▁pointy	-6155
▁Rudolph	-6156
▁basement	-6157
zes	-6158
▁Mouse	-6159
Sally	-6160
oh	-6161
▁sewing	-6162
anging	-6163
▁firefighter	-6164
ans	-6165
▁spikes	-6166
elvet	-6167
▁rising	-6168
chievous	-6169
▁mischievous	-6170
▁reaching	-6171
▁feast	-6172
▁Stop	-6173
▁rainy	-6174
▁widened	-6175
Oops	-6176
Watch	-6177
▁cobwebs	-6178
▁scarecrow	-6179
▁granddaughter	-6180
igning	-6181
▁cowb	-6182
▁creativity	-6183
▁Car	-6184
▁copy	-6185
ody	-6186
Choo	-6187
rosty	-6188
idnight	-6189
▁plenty	-6190
itcase	-6191
▁suitcase	-6192
▁tails	-6193
▁timer	-6194
▁Ava	-6195
Achoo	-6196
racted	-6197
▁Ratty	-6198
▁tipto	-6199
▁objects	-6200
▁direction	-6201
▁tissue	-6202
ann	-6203
▁exh	-6204
▁Like	-6205
▁steady	-6206
▁knowled	-6207
▁knowledge	-6208
▁Cindy	-6209
▁Spring	-6210
Benny	-6211
▁Thumper	-6212
▁Midnight	-6213
▁roads	-6214
▁joking	-6215
▁speaking	-6216
▁Being	-6217
▁Bug	-6218
▁Bree	-6219
▁planting	-6220
Silly	-6221
▁decides	-6222
▁Ol	-6223
ades	-6224
▁pout	-6225
▁shrug	-6226
aut	-6227
▁freed	-6228
▁Frosty	-6229
▁rule	-6230
▁zebras	-6231
▁Because	-6232
▁pennies	-6233
▁vanilla	-6234
band	-6235
▁untied	-6236
▁Dare	-6237
▁choo	-6238
Those	-6239
▁Sure	-6240
▁hike	-6241
▁pigeons	-6242
▁purr	-6243
▁masks	-6244
▁faced	-6245
▁wrink	-6246
▁delivery	-6247
uly	-6248
bur	-6249
▁Beep	-6250
▁ripe	-6251
▁scur	-6252
ushing	-6253
▁forks	-6254
▁patted	-6255
▁tunnels	-6256
▁chuck	-6257
▁hearing	-6258
▁Birthday	-6259
icky	-6260
▁wires	-6261
Tommy	-6262
▁scurried	-6263
▁mes	-6264
▁remote	-6265
▁lifting	-6266
▁Olly	-6267
▁refuse	-6268
▁leading	-6269
▁draws	-6270
▁causing	-6271
▁responsibility	-6272
▁Ho	-6273
▁Jam	-6274
▁sights	-6275
▁leaning	-6276
▁windy	-6277
▁drives	-6278
▁unpacked	-6279
▁Sc	-6280
▁Jan	-6281
▁Stitch	-6282
▁guests	-6283
loe	-6284
▁spong	-6285
▁rockets	-6286
▁surv	-6287
▁vegg	-6288
Fl	-6289
njoy	-6290
▁Freddie	-6291
▁For	-6292
▁pops	-6293
▁marshmallows	-6294
balls	-6295
▁instrum	-6296
▁claps	-6297
uing	-6298
▁froze	-6299
▁loading	-6300
▁sweeties	-6301
fl	-6302
aterial	-6303
▁birdhouse	-6304
▁discovering	-6305
▁material	-6306
▁caut	-6307
angles	-6308
▁cautious	-6309
▁robb	-6310
▁begin	-6311
▁damage	-6312
▁mer	-6313
▁Pinchy	-6314
▁biting	-6315
▁honk	-6316
▁wasted	-6317
▁waddled	-6318
▁Love	-6319
▁deal	-6320
▁squares	-6321
▁forgiven	-6322
▁Chloe	-6323
▁explo	-6324
▁helmets	-6325
▁designed	-6326
▁fluttering	-6327
akes	-6328
▁drown	-6329
▁veggies	-6330
▁completely	-6331
▁direct	-6332
▁puppies	-6333
▁mailed	-6334
▁catches	-6335
▁discussed	-6336
▁performing	-6337
pare	-6338
▁convers	-6339
tle	-6340
▁dep	-6341
▁Abby	-6342
ogo	-6343
atul	-6344
▁dresser	-6345
▁twirling	-6346
otten	-6347
▁flight	-6348
▁sponge	-6349
▁handsome	-6350
▁Duck	-6351
▁flags	-6352
▁greet	-6353
▁borrowed	-6354
▁rotten	-6355
▁Twinkle	-6356
▁scraped	-6357
▁tractor	-6358
▁interested	-6359
▁tricky	-6360
▁surfing	-6361
▁jud	-6362
▁worries	-6363
▁printing	-6364
▁Mat	-6365
▁toaster	-6366
▁written	-6367
▁meatballs	-6368
▁willing	-6369
▁dropping	-6370
▁moo	-6371
ler	-6372
Stay	-6373
▁truly	-6374
▁barely	-6375
▁sadder	-6376
▁changing	-6377
▁sunflowers	-6378
▁tables	-6379
▁Ju	-6380
▁Bye	-6381
▁snuggle	-6382
.'	-6383
▁bowls	-6384
▁chuckled	-6385
▁peered	-6386
▁Everyday	-6387
▁Ad	-6388
▁Mir	-6389
isdom	-6390
▁tires	-6391
▁dancers	-6392
▁lending	-6393
▁grandpare	-6394
ern	-6395
▁Catty	-6396
▁Pippa	-6397
▁stays	-6398
▁countryside	-6399
▁repa	-6400
attered	-6401
▁Moo	-6402
▁knocking	-6403
▁distracted	-6404
John	-6405
▁Ally	-6406
▁magnets	-6407
step	-6408
▁san	-6409
▁rumble	-6410
▁Sparkles	-6411
▁rings	-6412
▁traded	-6413
▁napkins	-6414
iding	-6415
▁shoo	-6416
▁uses	-6417
▁haven	-6418
▁cuts	-6419
artment	-6420
▁behaving	-6421
atur	-6422
▁writes	-6423
▁players	-6424
▁stacked	-6425
▁accomplish	-6426
int	-6427
▁Josh	-6428
▁aimed	-6429
▁den	-6430
▁Beth	-6431
▁beloved	-6432
▁delayed	-6433
▁repaired	-6434
▁ty	-6435
cher	-6436
ounced	-6437
▁baller	-6438
iar	-6439
▁crept	-6440
▁wobble	-6441
free	-6442
▁Blink	-6443
▁thrown	-6444
▁triangles	-6445
▁birdy	-6446
▁glued	-6447
▁rip	-6448
▁fits	-6449
▁wishing	-6450
▁sailors	-6451
bly	-6452
▁pecked	-6453
▁playroom	-6454
rup	-6455
▁bene	-6456
▁burnt	-6457
▁Lou	-6458
annah	-6459
▁polar	-6460
▁Biggie	-6461
▁Puddles	-6462
▁slither	-6463
▁backwards	-6464
▁increased	-6465
eds	-6466
▁bows	-6467
▁wiping	-6468
▁attacked	-6469
▁directions	-6470
▁sank	-6471
Fluffy	-6472
▁teaches	-6473
▁rustling	-6474
▁speeding	-6475
▁Mil	-6476
▁laying	-6477
▁Jess	-6478
▁cent	-6479
▁lighter	-6480
▁watermel	-6481
▁teamwork	-6482
▁characters	-6483
ronaut	-6484
▁grows	-6485
▁Splash	-6486
irm	-6487
▁pleasure	-6488
▁beneath	-6489
▁astronaut	-6490
ably	-6491
▁dragged	-6492
ongr	-6493
▁Patch	-6494
▁items	-6495
▁survive	-6496
▁aeroplanes	-6497
▁ballerina	-6498
▁Jamie	-6499
▁offic	-6500
▁outdo	-6501
▁rotting	-6502
▁wee	-6503
ongratul	-6504
▁servant	-6505
▁behavior	-6506
▁peck	-6507
▁starfish	-6508
▁Poor	-6509
▁spreading	-6510
uke	-6511
▁vines	-6512
▁learns	-6513
▁puppet	-6514
▁rushing	-6515
▁watermelon	-6516
▁yum	-6517
nytime	-6518
ition	-6519
▁dollars	-6520
▁politely	-6521
▁plain	-6522
▁cotton	-6523
▁lungs	-6524
▁deserve	-6525
▁neither	-6526
▁reflection	-6527
ccoon	-6528
▁cocoon	-6529
▁covers	-6530
▁raccoon	-6531
▁paintbrush	-6532
you	-6533
lings	-6534
▁Jenna	-6535
▁shrunk	-6536
▁afar	-6537
itched	-6538
▁vehicles	-6539
▁age	-6540
▁performance	-6541
▁pans	-6542
▁supported	-6543
form	-6544
▁amount	-6545
▁pretends	-6546
hog	-6547
▁satisfied	-6548
▁grandparents	-6549
▁Put	-6550
▁Enjoy	-6551
▁spice	-6552
▁brushing	-6553
▁mosquitoes	-6554
▁aisle	-6555
▁salty	-6556
▁colder	-6557
Our	-6558
▁peas	-6559
cl	-6560
rac	-6561
gets	-6562
iled	-6563
▁Chew	-6564
▁risks	-6565
▁disturbing	-6566
Bad	-6567
ude	-6568
▁noses	-6569
▁whose	-6570
▁chases	-6571
▁scient	-6572
▁hedgehog	-6573
▁questioned	-6574
▁seven	-6575
▁twinkle	-6576
▁bracelets	-6577
▁scientist	-6578
▁sighs	-6579
▁unfortunately	-6580
hee	-6581
▁opp	-6582
oni	-6583
▁Dot	-6584
elace	-6585
▁Hippy	-6586
▁shoelace	-6587
▁Hopper	-6588
▁burger	-6589
bie	-6590
▁blows	-6591
esome	-6592
▁forehead	-6593
▁surrendered	-6594
▁conversation	-6595
▁Fu	-6596
rance	-6597
▁Julie	-6598
inda	-6599
▁Bop	-6600
▁Kay	-6601
▁steer	-6602
▁onwards	-6603
▁permitted	-6604
▁Two	-6605
▁swans	-6606
▁stool	-6607
▁flapping	-6608
▁Excitedly	-6609
▁strongest	-6610
ives	-6611
screen	-6612
▁reason	-6613
▁wiggly	-6614
▁Sun	-6615
▁races	-6616
▁fact	-6617
▁Jilly	-6618
▁rusty	-6619
▁sending	-6620
▁suffered	-6621
arter	-6622
▁blown	-6623
▁Flutter	-6624
▁drowned	-6625
Time	-6626
cope	-6627
▁surfboard	-6628
▁prick	-6629
▁honked	-6630
▁smarter	-6631
▁hus	-6632
▁munch	-6633
▁ropes	-6634
▁neatly	-6635
but	-6636
▁plans	-6637
▁officers	-6638
atches	-6639
▁knees	-6640
▁farther	-6641
▁storekeeper	-6642
▁Claire	-6643
▁afterwards	-6644
▁determination	-6645
▁dots	-6646
▁warmer	-6647
▁ruining	-6648
amboo	-6649
▁awesome	-6650
▁policeman	-6651
▁Jeff	-6652
▁conn	-6653
aws	-6654
▁meowing	-6655
Hold	-6656
llen	-6657
▁Milo	-6658
▁Want	-6659
▁sunscreen	-6660
Fine	-6661
▁jackets	-6662
▁die	-6663
▁Ping	-6664
▁Leave	-6665
▁badge	-6666
▁bravest	-6667
▁celebration	-6668
▁burst	-6669
▁husband	-6670
▁Jones	-6671
▁haird	-6672
▁forgiving	-6673
▁Rover	-6674
▁Welcome	-6675
▁swimsuit	-6676
▁Far	-6677
▁Stay	-6678
▁department	-6679
ears	-6680
kend	-6681
▁slam	-6682
▁bamboo	-6683
▁planning	-6684
▁fuzzy	-6685
▁weekend	-6686
▁entrance	-6687
▁Auntie	-6688
▁outdoors	-6689
ido	-6690
Some	-6691
▁Susan	-6692
▁owners	-6693
▁bothering	-6694
Then	-6695
▁merma	-6696
▁Wisdom	-6697
▁gracefully	-6698
Shh	-6699
▁scratching	-6700
ena	-6701
lled	-6702
ooky	-6703
onies	-6704
▁cloudy	-6705
ouch	-6706
▁Mira	-6707
▁Skip	-6708
▁rout	-6709
▁exploded	-6710
▁necklaces	-6711
▁passports	-6712
▁solving	-6713
aped	-6714
▁calmed	-6715
▁blocked	-6716
▁heavier	-6717
▁inj	-6718
itude	-6719
▁Henny	-6720
▁sense	-6721
▁slowed	-6722
▁gardener	-6723
▁Nina	-6724
▁tapped	-6725
no	-6726
▁guessing	-6727
▁Fido	-6728
▁rains	-6729
▁Fire	-6730
lephant	-6731
Fo	-6732
▁sib	-6733
▁wobbled	-6734
Cl	-6735
Ro	-6736
▁nood	-6737
▁ponies	-6738
▁worrying	-6739
yes	-6740
▁Nice	-6741
▁drawn	-6742
▁poster	-6743
▁hesitated	-6744
▁surprising	-6745
▁month	-6746
▁stern	-6747
▁younger	-6748
Teddy	-6749
▁pens	-6750
▁ships	-6751
boat	-6752
▁dryer	-6753
▁windowsill	-6754
▁films	-6755
▁flas	-6756
▁misses	-6757
Mummy	-6758
▁fires	-6759
Mum	-6760
▁unf	-6761
▁Along	-6762
▁Mikey	-6763
▁nests	-6764
▁humans	-6765
▁stitches	-6766
ddie	-6767
rious	-6768
▁Sorry	-6769
▁entire	-6770
▁floors	-6771
▁aware	-6772
▁swords	-6773
▁crew	-6774
▁fleas	-6775
▁aliens	-6776
▁hairdress	-6777
▁shrinking	-6778
▁Wil	-6779
▁Farmer	-6780
▁master	-6781
▁oysters	-6782
▁preparing	-6783
▁kit	-6784
▁rubs	-6785
Listen	-6786
▁wears	-6787
▁conduct	-6788
idents	-6789
▁overhe	-6790
▁hairdresser	-6791
▁activ	-6792
▁coral	-6793
Billy	-6794
▁convin	-6795
▁resisted	-6796
▁forgiveness	-6797
▁shaped	-6798
▁Without	-6799
▁drifted	-6800
▁hunters	-6801
rie	-6802
▁buzzed	-6803
▁squishy	-6804
▁conductor	-6805
airy	-6806
▁Jon	-6807
▁cheeks	-6808
rint	-6809
▁fishy	-6810
▁closes	-6811
▁melons	-6812
▁spooky	-6813
▁Nana	-6814
▁frowning	-6815
▁Yes	-6816
▁agrees	-6817
▁relief	-6818
▁listens	-6819
▁creations	-6820
belt	-6821
▁slower	-6822
▁wobbly	-6823
▁breathed	-6824
▁dived	-6825
ccidents	-6826
..."	-6827
bbie	-6828
▁impo	-6829
▁soaking	-6830
▁seatbelt	-6831
▁impossible	-6832
acob	-6833
▁Mad	-6834
ading	-6835
▁wept	-6836
▁Eddie	-6837
ironment	-6838
▁spoonful	-6839
▁Adam	-6840
▁Those	-6841
▁clues	-6842
▁manag	-6843
▁environment	-6844
▁coug	-6845
▁firm	-6846
▁focus	-6847
▁yielded	-6848
▁Mous	-6849
▁smoking	-6850
▁scratches	-6851
▁belongings	-6852
▁floats	-6853
une	-6854
▁bumps	-6855
▁lower	-6856
▁foc	-6857
▁tar	-6858
bably	-6859
▁bully	-6860
▁dances	-6861
▁figured	-6862
▁focused	-6863
▁blinking	-6864
▁probably	-6865
▁und	-6866
Le	-6867
▁Clau	-6868
▁Jacob	-6869
▁rolls	-6870
▁Oliver	-6871
▁burying	-6872
Run	-6873
apt	-6874
▁cust	-6875
▁aside	-6876
▁decoration	-6877
fire	-6878
▁ramp	-6879
▁vent	-6880
▁flipped	-6881
▁overheard	-6882
▁activities	-6883
▁Pr	-6884
▁Fuzzy	-6885
▁Linda	-6886
▁Hannah	-6887
▁cowboy	-6888
▁Jay	-6889
though	-6890
▁Mousy	-6891
▁among	-6892
▁prickly	-6893
ica	-6894
rumpy	-6895
▁fins	-6896
▁pupils	-6897
▁tiptoed	-6898
▁kicks	-6899
▁notes	-6900
▁tying	-6901
▁Elephant	-6902
▁startled	-6903
ider	-6904
yond	-6905
▁det	-6906
acles	-6907
▁beyond	-6908
▁mermaid	-6909
fall	-6910
ection	-6911
▁syrup	-6912
▁mattered	-6913
▁sprinkled	-6914
▁twinkling	-6915
▁grip	-6916
▁thud	-6917
▁Dizzy	-6918
▁sobbed	-6919
▁grabbing	-6920
▁breathing	-6921
▁aller	-6922
▁airplanes	-6923
▁displayed	-6924
rrr	-6925
▁Crab	-6926
▁lent	-6927
▁puck	-6928
▁trans	-6929
▁Jessie	-6930
▁waking	-6931
▁commun	-6932
▁custom	-6933
▁wrinkled	-6934
▁reass	-6935
▁bitten	-6936
▁seconds	-6937
▁stomped	-6938
▁encourag	-6939
ky	-6940
oke	-6941
pite	-6942
▁Crusty	-6943
▁cleaner	-6944
▁lipstick	-6945
▁sweetest	-6946
▁magazines	-6947
ibbit	-6948
▁Claus	-6949
▁seeker	-6950
▁damaged	-6951
wk	-6952
▁uns	-6953
▁merry	-6954
eese	-6955
▁Mix	-6956
▁Kids	-6957
▁serving	-6958
▁dressing	-6959
rect	-6960
worm	-6961
child	-6962
▁nine	-6963
▁yelp	-6964
▁joked	-6965
▁Cuddles	-6966
Cat	-6967
▁tested	-6968
▁convinced	-6969
aying	-6970
▁Anne	-6971
▁liqu	-6972
▁pins	-6973
Follow	-6974
▁scarves	-6975
▁encouragement	-6976
▁robots	-6977
▁Dara	-6978
▁softer	-6979
▁handing	-6980
▁jars	-6981
▁treated	-6982
ker	-6983
bell	-6984
iece	-6985
print	-6986
umbling	-6987
▁correct	-6988
▁ignoring	-6989
storm	-6990
▁pouted	-6991
▁sprang	-6992
▁stopping	-6993
▁streamers	-6994
▁defeated	-6995
▁reminding	-6996
▁Willy	-6997
▁thoughts	-6998
▁instruments	-6999
▁neighbourhood	-7000
▁jets	-7001
▁Rolly	-7002
▁figures	-7003
▁rescuing	-7004
▁reversed	-7005
▁siblings	-7006
▁argum	-7007
▁action	-7008
▁twisting	-7009
▁click	-7010
▁knots	-7011
▁Copper	-7012
▁backed	-7013
▁luckily	-7014
▁Dee	-7015
▁yourselves	-7016
rier	-7017
▁Whist	-7018
▁popsic	-7019
▁cupcake	-7020
shaped	-7021
▁hides	-7022
▁licking	-7023
▁annoy	-7024
▁craft	-7025
▁transform	-7026
▁grandchild	-7027
▁Sw	-7028
ifully	-7029
▁geese	-7030
▁Butter	-7031
▁haircuts	-7032
▁shoelaces	-7033
cept	-7034
iment	-7035
Mittens	-7036
▁images	-7037
▁secure	-7038
▁sheets	-7039
▁postman	-7040
▁beautifully	-7041
uzz	-7042
▁snowfl	-7043
▁handful	-7044
▁packages	-7045
▁dar	-7046
▁unw	-7047
▁weeds	-7048
▁mac	-7049
▁wow	-7050
mates	-7051
▁worn	-7052
▁hallway	-7053
▁lessons	-7054
Roar	-7055
issy	-7056
▁sprout	-7057
▁hawk	-7058
▁hider	-7059
▁hotter	-7060
▁beam	-7061
▁toss	-7062
▁crashing	-7063
ected	-7064
▁angels	-7065
▁jobs	-7066
▁tighter	-7067
▁rewarded	-7068
Rex	-7069
▁Lots	-7070
▁twice	-7071
▁allerg	-7072
▁passen	-7073
▁recess	-7074
▁tipped	-7075
▁however	-7076
▁trembled	-7077
▁Matt	-7078
▁reads	-7079
rig	-7080
▁streets	-7081
shions	-7082
▁slices	-7083
▁Sparkle	-7084
▁manners	-7085
▁noodles	-7086
▁poisonous	-7087
▁refreshing	-7088
sm	-7089
aret	-7090
▁Snap	-7091
▁rivers	-7092
▁Near	-7093
▁guide	-7094
cky	-7095
▁explorers	-7096
kelly	-7097
abel	-7098
▁shines	-7099
▁inchworm	-7100
▁situations	-7101
▁sailboat	-7102
▁Luke	-7103
▁batch	-7104
▁reapp	-7105
▁beeped	-7106
▁encouraging	-7107
Whee	-7108
obody	-7109
▁kittens	-7110
▁everyday	-7111
▁Izzy	-7112
▁insp	-7113
▁wisely	-7114
▁greeted	-7115
▁covering	-7116
▁darkness	-7117
▁sharks	-7118
▁bathing	-7119
▁toolbox	-7120
▁students	-7121
▁tuck	-7122
▁loops	-7123
▁wipes	-7124
▁labels	-7125
▁Ant	-7126
▁earn	-7127
▁plot	-7128
urious	-7129
▁yells	-7130
▁counts	-7131
▁groups	-7132
▁slipping	-7133
bird	-7134
▁Ash	-7135
cts	-7136
▁Skelly	-7137
▁rather	-7138
▁screws	-7139
▁routine	-7140
▁Other	-7141
▁Raven	-7142
▁bulbs	-7143
▁posit	-7144
▁Sophia	-7145
▁Squeak	-7146
▁liquid	-7147
▁silent	-7148
▁thorns	-7149
▁talents	-7150
▁convince	-7151
asm	-7152
▁pound	-7153
▁heading	-7154
▁Rudy	-7155
▁Tree	-7156
▁cushions	-7157
▁fart	-7158
▁partic	-7159
▁doorbell	-7160
▁appreciated	-7161
ments	-7162
orter	-7163
vroom	-7164
▁creamy	-7165
lling	-7166
▁argument	-7167
pen	-7168
▁Peep	-7169
▁shin	-7170
▁anger	-7171
▁dangers	-7172
▁familiar	-7173
?",	-7174
ware	-7175
▁paths	-7176
▁artwork	-7177
line	-7178
▁playd	-7179
▁knives	-7180
▁spices	-7181
▁soundly	-7182
▁Wilbur	-7183
▁business	-7184
▁waterfall	-7185
▁def	-7186
▁teap	-7187
▁tempt	-7188
▁Stella	-7189
▁designs	-7190
ats	-7191
ighty	-7192
▁Monkey	-7193
▁teapot	-7194
▁mixture	-7195
▁appearance	-7196
▁Se	-7197
▁ease	-7198
▁ties	-7199
▁center	-7200
cycles	-7201
▁nibble	-7202
aby	-7203
otch	-7204
uppy	-7205
▁nug	-7206
Tweet	-7207
▁blast	-7208
unched	-7209
▁exhau	-7210
▁slammed	-7211
▁farthest	-7212
▁designing	-7213
▁Ot	-7214
▁Robo	-7215
Dog	-7216
▁Kayla	-7217
▁panicked	-7218
▁Accidents	-7219
ueen	-7220
▁height	-7221
▁tossed	-7222
▁quarreled	-7223
▁Wink	-7224
▁buddy	-7225
▁sweep	-7226
▁Wo	-7227
immer	-7228
oring	-7229
▁Cathy	-7230
▁talks	-7231
▁spells	-7232
▁squished	-7233
▁shattered	-7234
▁Whistle	-7235
▁opinions	-7236
▁exercises	-7237
hew	-7238
rink	-7239
▁Lena	-7240
▁Larry	-7241
▁crops	-7242
▁squeal	-7243
▁seagulls	-7244
▁ev	-7245
ipes	-7246
▁Try	-7247
▁dot	-7248
▁Nothing	-7249
▁distract	-7250
Take	-7251
▁swimmer	-7252
▁knocks	-7253
▁cautiously	-7254
erm	-7255
fly	-7256
▁disob	-7257
▁instin	-7258
▁pedaled	-7259
▁imaginary	-7260
▁motorcycles	-7261
Anytime	-7262
▁judges	-7263
▁nuggets	-7264
▁ventured	-7265
▁except	-7266
▁tricycle	-7267
▁allowance	-7268
ces	-7269
▁Am	-7270
▁rats	-7271
ora	-7272
▁Ma	-7273
▁Tara	-7274
▁smelling	-7275
▁destroying	-7276
▁Paws	-7277
▁Rain	-7278
▁Years	-7279
▁seals	-7280
▁campfire	-7281
▁Julia	-7282
▁weapons	-7283
▁correctly	-7284
ulp	-7285
▁ghosts	-7286
▁dod	-7287
bbling	-7288
▁germ	-7289
▁buses	-7290
bel	-7291
▁Fish	-7292
▁acts	-7293
▁exch	-7294
▁pays	-7295
▁Mighty	-7296
▁Nobody	-7297
▁daring	-7298
▁seller	-7299
▁flashing	-7300
▁prevented	-7301
▁rowed	-7302
▁Robert	-7303
▁unsure	-7304
▁allergic	-7305
▁exhausted	-7306
▁dou	-7307
▁born	-7308
▁Bones	-7309
▁Chuck	-7310
▁instincts	-7311
aven	-7312
▁deed	-7313
▁hopeful	-7314
romise	-7315
▁Pingu	-7316
▁languages	-7317
▁magically	-7318
osen	-7319
▁leads	-7320
▁chosen	-7321
▁retrie	-7322
▁hatched	-7323
▁quieter	-7324
▁testing	-7325
▁reassured	-7326
▁scen	-7327
▁chilly	-7328
▁raking	-7329
▁seasons	-7330
▁healthier	-7331
▁traveling	-7332
▁nur	-7333
▁roast	-7334
▁salon	-7335
▁unicorns	-7336
▁messes	-7337
▁guarding	-7338
sa	-7339
ael	-7340
sol	-7341
stand	-7342
▁bells	-7343
▁flooded	-7344
▁playhouse	-7345
ppies	-7346
▁fries	-7347
▁vowed	-7348
▁beaver	-7349
▁single	-7350
▁unpacking	-7351
hile	-7352
▁sails	-7353
▁shown	-7354
▁collap	-7355
▁defeat	-7356
▁visitors	-7357
▁beginning	-7358
abra	-7359
▁Mel	-7360
▁hatch	-7361
▁sweaty	-7362
▁Sundays	-7363
▁thanking	-7364
▁container	-7365
▁Abbie	-7366
▁Missy	-7367
▁Shelly	-7368
▁combed	-7369
▁scattering	-7370
zie	-7371
▁cons	-7372
▁cig	-7373
izzie	-7374
▁ends	-7375
isions	-7376
▁overhead	-7377
adabra	-7378
▁whispers	-7379
Tr	-7380
▁occ	-7381
▁Lizzie	-7382
▁honesty	-7383
▁Cow	-7384
▁Dodo	-7385
▁evil	-7386
▁kings	-7387
▁sparks	-7388
▁touches	-7389
▁fluttered	-7390
▁diamonds	-7391
bit	-7392
▁breaths	-7393
▁sniffing	-7394
ighing	-7395
▁Fairy	-7396
▁robber	-7397
▁storms	-7398
▁cigaret	-7399
▁grandson	-7400
▁returning	-7401
▁dump	-7402
▁turtles	-7403
▁Ball	-7404
▁Listen	-7405
racadabra	-7406
▁Lau	-7407
▁decisions	-7408
lt	-7409
▁Pup	-7410
▁tum	-7411
stalk	-7412
▁puff	-7413
▁chefs	-7414
▁charge	-7415
▁Curious	-7416
▁gobbled	-7417
▁manager	-7418
▁singers	-7419
aren	-7420
▁Rich	-7421
lied	-7422
▁Hold	-7423
▁maker	-7424
▁wraps	-7425
▁forgets	-7426
▁plumber	-7427
▁reminds	-7428
▁particular	-7429
▁teams	-7430
▁Ostrich	-7431
▁pancake	-7432
▁tummies	-7433
▁materials	-7434
ammy	-7435
▁Pam	-7436
▁gaz	-7437
▁poses	-7438
▁runner	-7439
▁burgers	-7440
▁drawers	-7441
▁leaking	-7442
▁Only	-7443
▁self	-7444
▁Satur	-7445
▁calmly	-7446
▁drivers	-7447
▁playdate	-7448
orse	-7449
▁Cro	-7450
▁Ouch	-7451
▁Turt	-7452
▁camel	-7453
▁prove	-7454
▁tweet	-7455
▁unwra	-7456
▁growls	-7457
▁freezing	-7458
▁respected	-7459
▁chocolates	-7460
Dear	-7461
▁Take	-7462
▁coach	-7463
▁spare	-7464
▁heaven	-7465
▁stroked	-7466
▁Jump	-7467
▁Karen	-7468
▁shops	-7469
▁wakes	-7470
▁stored	-7471
▁purpose	-7472
▁beanstalk	-7473
▁classmates	-7474
mag	-7475
uess	-7476
▁coup	-7477
▁gest	-7478
ichael	-7479
▁positive	-7480
▁announced	-7481
ongratulations	-7482
cat	-7483
Bless	-7484
retty	-7485
▁chopped	-7486
▁express	-7487
▁upside	-7488
▁bicycles	-7489
▁taped	-7490
▁closing	-7491
▁darling	-7492
▁Suzie	-7493
▁popsicle	-7494
▁squeezing	-7495
▁Bark	-7496
▁flip	-7497
▁Michael	-7498
▁poppies	-7499
▁friendships	-7500
▁June	-7501
▁coolest	-7502
cho	-7503
▁mate	-7504
rigued	-7505
▁Laura	-7506
▁braver	-7507
icate	-7508
▁swirl	-7509
▁cleared	-7510
?'	-7511
bee	-7512
quet	-7513
▁belts	-7514
▁foxes	-7515
▁habit	-7516
▁blushed	-7517
alph	-7518
▁accomplished	-7519
Pl	-7520
First	-7521
▁neare	-7522
▁months	-7523
▁source	-7524
▁shorter	-7525
▁Sl	-7526
ertain	-7527
▁Mabel	-7528
▁shady	-7529
▁peeled	-7530
Beep	-7531
▁bou	-7532
▁Dove	-7533
prints	-7534
▁Trust	-7535
▁grassy	-7536
▁corners	-7537
▁Oh	-7538
▁battle	-7539
▁Another	-7540
▁bouquet	-7541
▁crystals	-7542
▁scooters	-7543
All	-7544
pecting	-7545
▁presses	-7546
▁echo	-7547
▁Fishy	-7548
▁traps	-7549
▁untangled	-7550
▁Tig	-7551
Buddy	-7552
▁Jessica	-7553
▁visitor	-7554
▁wasting	-7555
▁backward	-7556
▁squealed	-7557
▁nightmares	-7558
rand	-7559
▁hoops	-7560
▁potty	-7561
▁shave	-7562
▁bandages	-7563
▁invitations	-7564
endy	-7565
▁Min	-7566
▁Ralph	-7567
Bobo	-7568
undred	-7569
▁rewards	-7570
▁shovels	-7571
▁Puppy	-7572
▁inter	-7573
▁stores	-7574
▁respond	-7575
▁zipping	-7576
▁disappoint	-7577
Which	-7578
▁buckled	-7579
▁encount	-7580
che	-7581
Like	-7582
Lila	-7583
▁horiz	-7584
▁skate	-7585
▁stands	-7586
▁healing	-7587
Put	-7588
▁hour	-7589
▁Bloom	-7590
▁horizon	-7591
Bl	-7592
whe	-7593
guard	-7594
▁couple	-7595
▁novels	-7596
▁Snowman	-7597
▁swallow	-7598
▁inspired	-7599
▁experiences	-7600
the	-7601
▁yelped	-7602
▁whoever	-7603
▁tentacles	-7604
ha	-7605
Jump	-7606
▁sped	-7607
▁auntie	-7608
▁gazing	-7609
▁target	-7610
▁gesture	-7611
▁offering	-7612
▁Isn	-7613
▁scri	-7614
▁germs	-7615
▁minds	-7616
▁suits	-7617
▁stinky	-7618
▁spilling	-7619
Mine	-7620
▁swo	-7621
uacky	-7622
▁pantry	-7623
▁joining	-7624
▁swollen	-7625
▁curiously	-7626
▁everybody	-7627
Boys	-7628
▁Win	-7629
▁ass	-7630
▁teles	-7631
▁queens	-7632
▁hundred	-7633
▁symbols	-7634
In	-7635
onse	-7636
under	-7637
▁Peanut	-7638
▁disobey	-7639
▁Saturday	-7640
▁response	-7641
yan	-7642
rigg	-7643
▁Well	-7644
▁spins	-7645
▁cheaper	-7646
Ab	-7647
▁goo	-7648
▁squaw	-7649
▁munching	-7650
▁sometime	-7651
▁footprints	-7652
▁passengers	-7653
ingo	-7654
▁gle	-7655
▁Davey	-7656
▁actor	-7657
▁beating	-7658
▁telescope	-7659
over	-7660
steps	-7661
▁moat	-7662
▁nuzz	-7663
iciest	-7664
▁Chris	-7665
▁Sleep	-7666
▁hangers	-7667
iving	-7668
▁pills	-7669
▁changes	-7670
upt	-7671
▁mooed	-7672
▁Piggie	-7673
▁weaker	-7674
Wake	-7675
acle	-7676
▁stomp	-7677
ilities	-7678
▁weighs	-7679
▁footsteps	-7680
▁occas	-7681
▁results	-7682
▁stacking	-7683
▁accomplishment	-7684
wise	-7685
▁bru	-7686
▁Cara	-7687
▁Ryan	-7688
▁Beaky	-7689
cessary	-7690
▁Rollie	-7691
▁journeys	-7692
▁answering	-7693
▁Ang	-7694
ortun	-7695
▁Wise	-7696
▁Doctor	-7697
▁Robbie	-7698
▁donkey	-7699
▁scurry	-7700
▁kayaking	-7701
▁opportun	-7702
▁switched	-7703
str	-7704
ilted	-7705
▁active	-7706
▁suggestion	-7707
▁double	-7708
▁dripping	-7709
▁stepping	-7710
▁believing	-7711
?!"	-7712
▁Honey	-7713
▁nurses	-7714
▁freedom	-7715
▁untangle	-7716
▁increasing	-7717
jo	-7718
scotch	-7719
▁Turtle	-7720
▁birdies	-7721
▁honking	-7722
▁tearing	-7723
▁pinching	-7724
▁somebody	-7725
▁transformed	-7726
iter	-7727
lers	-7728
▁rely	-7729
▁Jackie	-7730
▁hunting	-7731
▁whipped	-7732
An	-7733
rench	-7734
▁bolt	-7735
▁mesmer	-7736
▁enthusi	-7737
▁student	-7738
▁lifeguard	-7739
▁slithered	-7740
oey	-7741
▁sou	-7742
Hurry	-7743
▁spat	-7744
▁wrigg	-7745
▁snowflakes	-7746
rum	-7747
Bang	-7748
niver	-7749
▁lava	-7750
▁lies	-7751
▁sill	-7752
▁Lenny	-7753
▁forts	-7754
▁lifts	-7755
▁hopscotch	-7756
▁enthusiasm	-7757
cri	-7758
▁arr	-7759
vered	-7760
▁edges	-7761
▁flick	-7762
▁clearly	-7763
▁nibbled	-7764
▁consider	-7765
▁whispering	-7766
▁Pen	-7767
▁cheat	-7768
▁Prince	-7769
▁prizes	-7770
▁squeak	-7771
▁signing	-7772
▁rin	-7773
water	-7774
▁hops	-7775
idence	-7776
ugging	-7777
▁Although	-7778
▁doorstep	-7779
▁repairman	-7780
▁communicate	-7781
Nice	-7782
▁tutu	-7783
▁punishment	-7784
aa	-7785
imon	-7786
▁Cle	-7787
▁unz	-7788
▁obst	-7789
orking	-7790
▁pours	-7791
▁tubes	-7792
▁adults	-7793
▁earned	-7794
▁certain	-7795
▁lunchtime	-7796
ibit	-7797
▁Woof	-7798
▁Laser	-7799
▁torto	-7800
▁checkout	-7801
▁collapsed	-7802
▁repeating	-7803
Every	-7804
▁Time	-7805
▁Black	-7806
▁force	-7807
ighting	-7808
▁achieved	-7809
Someone	-7810
▁crowns	-7811
▁petting	-7812
▁grumbled	-7813
▁supplied	-7814
▁tortoise	-7815
▁uniforms	-7816
▁springing	-7817
aint	-7818
▁Des	-7819
▁Piggy	-7820
▁elect	-7821
▁slips	-7822
▁cherish	-7823
▁checking	-7824
▁intrigued	-7825
▁exercising	-7826
'."	-7827
Keep	-7828
site	-7829
▁Maya	-7830
▁shorts	-7831
▁relaxing	-7832
▁appreciation	-7833
iti	-7834
tock	-7835
▁Meg	-7836
while	-7837
▁yumm	-7838
▁minded	-7839
▁spills	-7840
▁wrecked	-7841
▁shortcut	-7842
Eww	-7843
Open	-7844
▁Lia	-7845
▁Wolf	-7846
ippers	-7847
▁squir	-7848
▁longest	-7849
▁compliment	-7850
▁hoo	-7851
otion	-7852
▁grat	-7853
▁type	-7854
▁cells	-7855
▁stroke	-7856
▁stroll	-7857
▁exhibit	-7858
▁robbers	-7859
▁bothered	-7860
▁choosing	-7861
Does	-7862
▁Mean	-7863
▁clue	-7864
▁Strip	-7865
▁gratitude	-7866
▁temptation	-7867
Congratulations	-7868
col	-7869
▁dip	-7870
▁Make	-7871
▁lull	-7872
▁insisting	-7873
awn	-7874
ently	-7875
▁tant	-7876
▁miles	-7877
▁dollar	-7878
▁tapping	-7879
▁coughing	-7880
▁examining	-7881
▁pepperoni	-7882
▁form	-7883
▁Barry	-7884
▁sirens	-7885
▁wolves	-7886
▁nervously	-7887
▁Raz	-7888
acock	-7889
▁roars	-7890
▁sniffs	-7891
▁landing	-7892
▁statues	-7893
▁tantrum	-7894
hi	-7895
Moo	-7896
ien	-7897
▁coop	-7898
▁tours	-7899
▁shinier	-7900
▁Ar	-7901
dding	-7902
▁elbow	-7903
▁failed	-7904
▁benches	-7905
▁rows	-7906
▁Bruce	-7907
▁Wendy	-7908
▁freely	-7909
▁marking	-7910
▁driveway	-7911
iley	-7912
oard	-7913
onna	-7914
▁messed	-7915
▁peacock	-7916
▁kneeling	-7917
▁bud	-7918
▁topp	-7919
▁Rusty	-7920
▁aboard	-7921
val	-7922
retch	-7923
▁bits	-7924
▁Simon	-7925
▁fights	-7926
▁orders	-7927
▁helicopters	-7928
▁Otto	-7929
Ribbit	-7930
▁Bumpy	-7931
▁giggles	-7932
▁countries	-7933
▁elf	-7934
▁Bugs	-7935
▁electric	-7936
▁Oak	-7937
▁Ron	-7938
Sarah	-7939
▁sculp	-7940
▁sculpture	-7941
eal	-7942
▁Stri	-7943
▁engines	-7944
▁borrowing	-7945
opes	-7946
▁Ana	-7947
freeze	-7948
▁foggy	-7949
▁homeless	-7950
▁Meanwhile	-7951
▁connected	-7952
▁supporting	-7953
▁Sweet	-7954
▁pandas	-7955
▁sipped	-7956
▁Stripey	-7957
Em	-7958
da	-7959
▁within	-7960
▁tasting	-7961
Free	-7962
▁todd	-7963
▁Janie	-7964
▁icing	-7965
▁strum	-7966
▁Pretty	-7967
▁juiciest	-7968
▁massages	-7969
▁customers	-7970
▁comforting	-7971
▁Dra	-7972
▁cal	-7973
▁babys	-7974
▁magnif	-7975
▁scares	-7976
▁campsite	-7977
▁listener	-7978
▁providing	-7979
Sn	-7980
▁Claw	-7981
▁stur	-7982
▁pipes	-7983
▁twists	-7984
▁lullaby	-7985
▁yawning	-7986
▁babysitter	-7987
lo	-7988
▁Ali	-7989
order	-7990
arable	-7991
▁Momma	-7992
▁wider	-7993
▁section	-7994
▁thicker	-7995
bu	-7996
ris	-7997
found	-7998
▁Moon	-7999
▁curre	-8000
▁fireflies	-8001
Abracadabra	-8002
▁Tia	-8003
arrow	-8004
artha	-8005
uffin	-8006
▁bride	-8007
▁erase	-8008
▁drying	-8009
▁nodding	-8010
▁raising	-8011
Tw	-8012
▁ank	-8013
Leave	-8014
antha	-8015
▁Dani	-8016
rowave	-8017
▁Sadie	-8018
▁matey	-8019
▁sicker	-8020
▁backpacks	-8021
▁microwave	-8022
On	-8023
▁hooks	-8024
▁Martha	-8025
▁pounced	-8026
▁Sof	-8027
▁Emmy	-8028
▁Nick	-8029
▁natur	-8030
▁whales	-8031
▁cottage	-8032
▁stubbed	-8033
▁chopping	-8034
▁springtime	-8035
beep	-8036
endant	-8037
▁Flappy	-8038
▁confidence	-8039
▁Te	-8040
▁clip	-8041
magine	-8042
▁react	-8043
▁whimp	-8044
▁Samantha	-8045
▁exchange	-8046
▁messages	-8047
▁discussing	-8048
▁moderation	-8049
isc	-8050
▁Stan	-8051
▁glee	-8052
▁fills	-8053
▁flowing	-8054
▁preschool	-8055
ails	-8056
llas	-8057
aptain	-8058
▁Muffin	-8059
▁Shadow	-8060
▁clicked	-8061
▁mommies	-8062
▁prayers	-8063
book	-8064
▁costs	-8065
▁flips	-8066
▁scratchy	-8067
▁teachers	-8068
▁throughout	-8069
▁aim	-8070
▁Show	-8071
▁conc	-8072
▁sens	-8073
▁Nancy	-8074
▁insep	-8075
▁cracks	-8076
▁firmly	-8077
▁lunchbox	-8078
▁cigarette	-8079
▁inseparable	-8080
▁Titi	-8081
onut	-8082
▁Mixy	-8083
▁unst	-8084
▁Whoever	-8085
▁address	-8086
▁angrier	-8087
▁umbrellas	-8088
otte	-8089
▁Judy	-8090
hopper	-8091
▁Mindy	-8092
▁tests	-8093
▁wealth	-8094
▁Outside	-8095
▁baskets	-8096
▁nearest	-8097
▁popping	-8098
▁wrapper	-8099
▁Mic	-8100
ounce	-8101
▁Roger	-8102
▁Mother	-8103
▁Thunder	-8104
▁wiggling	-8105
▁observing	-8106
▁understands	-8107
uses	-8108
▁Mint	-8109
▁disc	-8110
etchup	-8111
▁locks	-8112
▁scent	-8113
Sharing	-8114
▁napped	-8115
▁Despite	-8116
▁coconut	-8117
▁current	-8118
▁weighing	-8119
rob	-8120
aker	-8121
▁Jacky	-8122
▁Super	-8123
▁ankle	-8124
▁bellies	-8125
▁sweeter	-8126
▁headache	-8127
▁noticing	-8128
▁toothbrush	-8129
▁grasshopper	-8130
Pe	-8131
▁Ms	-8132
asty	-8133
▁Ruth	-8134
▁Todd	-8135
father	-8136
▁Stretch	-8137
▁showers	-8138
▁deserved	-8139
▁smoothly	-8140
▁scurrying	-8141
of	-8142
▁Jonny	-8143
▁Spirit	-8144
▁models	-8145
urrender	-8146
▁approach	-8147
▁crickets	-8148
▁tickling	-8149
oor	-8150
▁Joan	-8151
▁ting	-8152
▁Razor	-8153
▁sandy	-8154
▁cooled	-8155
▁frowns	-8156
▁member	-8157
▁Captain	-8158
▁lowered	-8159
▁slapping	-8160
▁terrified	-8161
▁thunderstorm	-8162
ole	-8163
▁hood	-8164
uction	-8165
▁Maddy	-8166
▁gonna	-8167
▁prank	-8168
▁litter	-8169
▁becomes	-8170
▁Charlotte	-8171
erk	-8172
▁slee	-8173
▁creams	-8174
▁plucked	-8175
▁sneezes	-8176
▁stuffing	-8177
▁condition	-8178
▁repairing	-8179
cup	-8180
oldie	-8181
▁swat	-8182
▁Holly	-8183
▁Kelly	-8184
▁backs	-8185
▁drift	-8186
▁shrank	-8187
▁pickles	-8188
niversity	-8189
▁experien	-8190
▁newfound	-8191
▁paddling	-8192
▁smartest	-8193
▁trusting	-8194
▁newspapers	-8195
▁gummy	-8196
▁wounds	-8197
▁Fighting	-8198
▁snowy	-8199
▁echoed	-8200
immering	-8201
▁tidying	-8202
▁squeaked	-8203
▁nightstand	-8204
▁scamp	-8205
▁Daniel	-8206
▁Playing	-8207
▁ketchup	-8208
▁stamped	-8209
▁travels	-8210
▁congratul	-8211
▁reappeared	-8212
▁automobiles	-8213
uel	-8214
ntil	-8215
▁Jolly	-8216
▁goats	-8217
▁sturdy	-8218
▁undone	-8219
▁gardens	-8220
▁Since	-8221
▁faded	-8222
▁beetles	-8223
▁munched	-8224
So	-8225
Fin	-8226
pit	-8227
▁Joh	-8228
▁Kip	-8229
Doggy	-8230
▁limp	-8231
▁scrub	-8232
▁scoops	-8233
▁puzzled	-8234
▁Everybody	-8235
▁Abi	-8236
▁Man	-8237
▁Okay	-8238
▁alley	-8239
▁emerged	-8240
▁tastiest	-8241
war	-8242
entr	-8243
scar	-8244
▁Yet	-8245
▁Toot	-8246
▁Barky	-8247
▁kinder	-8248
▁toddler	-8249
▁juggling	-8250
▁spoiling	-8251
▁generosity	-8252
cal	-8253
ngest	-8254
piece	-8255
urity	-8256
oscope	-8257
▁antic	-8258
▁spears	-8259
▁unable	-8260
▁lookout	-8261
▁sweaters	-8262
▁youngest	-8263
▁applauding	-8264
Hmm	-8265
flow	-8266
seed	-8267
▁Amel	-8268
▁Bang	-8269
▁Jojo	-8270
▁Oscar	-8271
▁burns	-8272
▁duckie	-8273
▁guards	-8274
▁otters	-8275
▁cheated	-8276
▁activity	-8277
▁birdseed	-8278
▁concentr	-8279
▁security	-8280
ula	-8281
▁Ph	-8282
bank	-8283
▁Toys	-8284
▁Marie	-8285
▁steth	-8286
▁facing	-8287
▁whined	-8288
▁trading	-8289
▁winners	-8290
▁toppings	-8291
▁Ice	-8292
▁Dina	-8293
▁inches	-8294
▁joyful	-8295
▁roller	-8296
▁twinkled	-8297
▁realizing	-8298
▁completing	-8299
▁considerate	-8300
▁hudd	-8301
▁types	-8302
Alright	-8303
▁Minnie	-8304
▁efforts	-8305
▁envelopes	-8306
beh	-8307
sie	-8308
▁Bad	-8309
▁spy	-8310
▁rebu	-8311
▁necks	-8312
▁oppos	-8313
▁crafts	-8314
▁pleaded	-8315
▁regularly	-8316
rew	-8317
Kids	-8318
▁Fel	-8319
▁Hug	-8320
▁mugs	-8321
▁Chess	-8322
▁Maisy	-8323
▁annoyed	-8324
▁cowboys	-8325
▁natural	-8326
▁overflow	-8327
▁enjoyable	-8328
▁Light	-8329
▁swayed	-8330
▁forests	-8331
▁nuzzled	-8332
▁astronauts	-8333
inger	-8334
organ	-8335
▁Eliz	-8336
▁carn	-8337
perate	-8338
▁groan	-8339
▁groom	-8340
▁chatted	-8341
▁stethoscope	-8342
▁sly	-8343
▁Becky	-8344
▁spies	-8345
▁movements	-8346
▁hiss	-8347
▁plug	-8348
▁wiser	-8349
▁swaying	-8350
▁attitude	-8351
▁opposite	-8352
▁yummiest	-8353
▁demanding	-8354
▁encountered	-8355
▁Kit	-8356
anish	-8357
▁suck	-8358
▁carve	-8359
▁files	-8360
▁pounds	-8361
▁carnival	-8362
Big	-8363
lish	-8364
▁Bess	-8365
▁mood	-8366
▁Chewy	-8367
▁Judge	-8368
▁loses	-8369
▁Taking	-8370
Whiskers	-8371
▁antlers	-8372
▁unstuck	-8373
Blue	-8374
ieve	-8375
ilda	-8376
▁rays	-8377
▁clerk	-8378
▁court	-8379
▁banged	-8380
▁Helping	-8381
▁Monster	-8382
jest	-8383
▁Pig	-8384
▁Nurse	-8385
▁warmly	-8386
▁cuddles	-8387
▁posters	-8388
▁cheating	-8389
▁coloured	-8390
▁experienced	-8391
▁caterpillars	-8392
▁congratulated	-8393
Try	-8394
▁Jax	-8395
▁ill	-8396
▁Tooth	-8397
▁stall	-8398
▁sternly	-8399
▁sprinkle	-8400
▁grandfather	-8401
Mag	-8402
vin	-8403
▁Navy	-8404
▁momma	-8405
▁killed	-8406
▁sooner	-8407
▁structures	-8408
▁Back	-8409
iscuit	-8410
▁Tiger	-8411
▁cutter	-8412
▁Wiggles	-8413
▁outfits	-8414
▁steering	-8415
iky	-8416
oosh	-8417
ening	-8418
onnie	-8419
▁cages	-8420
▁conqu	-8421
▁phones	-8422
▁rowing	-8423
▁plugged	-8424
▁weights	-8425
▁recorder	-8426
▁mesmerized	-8427
▁opportunity	-8428
mbur	-8429
▁Must	-8430
▁mold	-8431
▁bushy	-8432
▁tidied	-8433
▁crowded	-8434
▁huddled	-8435
▁minding	-8436
▁tumbled	-8437
▁scampered	-8438
▁disappearing	-8439
▁sets	-8440
▁tops	-8441
▁expert	-8442
▁quacking	-8443
▁alligators	-8444
▁CD	-8445
Brrr	-8446
isbee	-8447
▁canv	-8448
▁dial	-8449
▁Still	-8450
▁warri	-8451
▁builder	-8452
▁smashed	-8453
▁spelling	-8454
▁riverbank	-8455
▁travelled	-8456
▁electricity	-8457
bl	-8458
off	-8459
emies	-8460
▁flaps	-8461
▁hambur	-8462
▁parted	-8463
▁squish	-8464
▁boiling	-8465
▁compete	-8466
▁enemies	-8467
oga	-8468
▁Flo	-8469
venir	-8470
▁Loop	-8471
▁cheers	-8472
▁dodged	-8473
▁doorway	-8474
▁souvenir	-8475
▁differently	-8476
ca	-8477
For	-8478
Once	-8479
asers	-8480
▁Wait	-8481
▁nights	-8482
▁skirts	-8483
how	-8484
Beware	-8485
boards	-8486
▁rails	-8487
▁canvas	-8488
▁wrench	-8489
▁expecting	-8490
▁welcoming	-8491
mo	-8492
urn	-8493
gger	-8494
▁Off	-8495
▁Roo	-8496
▁gap	-8497
▁unlo	-8498
▁charm	-8499
▁soapy	-8500
▁descri	-8501
▁whistles	-8502
▁retrieved	-8503
▁masterpiece	-8504
abby	-8505
mbers	-8506
▁Herb	-8507
icking	-8508
▁exams	-8509
▁final	-8510
▁actors	-8511
▁sunbur	-8512
▁despite	-8513
▁members	-8514
▁sinking	-8515
▁trigger	-8516
▁Mustache	-8517
▁computers	-8518
▁challenged	-8519
Soon	-8520
▁curl	-8521
Danger	-8522
▁Jelly	-8523
▁spits	-8524
▁comets	-8525
▁melody	-8526
▁styles	-8527
▁toward	-8528
▁smoothie	-8529
▁Rel	-8530
inite	-8531
▁caps	-8532
▁darl	-8533
▁Shark	-8534
▁spiky	-8535
▁stains	-8536
▁darlings	-8537
▁fashionable	-8538
omb	-8539
omp	-8540
rey	-8541
▁Say	-8542
▁webs	-8543
▁Amelia	-8544
▁Annabel	-8545
▁erasers	-8546
▁Tuesdays	-8547
ili	-8548
Bear	-8549
▁Bel	-8550
▁decl	-8551
▁trot	-8552
ending	-8553
▁Dotty	-8554
▁Megan	-8555
initely	-8556
▁blades	-8557
▁scaredy	-8558
▁instrument	-8559
▁neighbours	-8560
racie	-8561
▁Bally	-8562
▁Candy	-8563
▁zooms	-8564
▁fishes	-8565
ita	-8566
zoom	-8567
▁brains	-8568
▁shooed	-8569
▁visits	-8570
▁troubles	-8571
▁commotion	-8572
▁explaining	-8573
▁differences	-8574
what	-8575
▁boil	-8576
▁fanc	-8577
antern	-8578
▁Bingo	-8579
▁Truck	-8580
▁beaks	-8581
▁cares	-8582
welcome	-8583
▁interest	-8584
▁tripping	-8585
ana	-8586
Fire	-8587
▁lur	-8588
erris	-8589
▁endings	-8590
▁frisbee	-8591
▁rumbling	-8592
▁Tri	-8593
aroni	-8594
▁tilted	-8595
▁ability	-8596
▁rebuild	-8597
▁compromise	-8598
Too	-8599
arted	-8600
elling	-8601
▁formed	-8602
▁injured	-8603
▁loudest	-8604
▁chatting	-8605
▁macaroni	-8606
▁crocodiles	-8607
▁discoveries	-8608
iona	-8609
▁Bra	-8610
▁Ria	-8611
Magic	-8612
ended	-8613
▁Start	-8614
▁sacks	-8615
▁trusty	-8616
▁warmed	-8617
His	-8618
▁caf	-8619
inema	-8620
▁hamm	-8621
▁cinema	-8622
▁quarre	-8623
▁simply	-8624
▁coughed	-8625
▁waitress	-8626
anda	-8627
icious	-8628
▁Angel	-8629
▁Jason	-8630
▁Micro	-8631
▁dolly	-8632
▁pilots	-8633
▁arranged	-8634
▁nibbling	-8635
▁pressing	-8636
▁obediently	-8637
etah	-8638
▁Day	-8639
▁dev	-8640
Daisy	-8641
▁Rino	-8642
▁Fiona	-8643
▁Ready	-8644
▁Ricky	-8645
▁examp	-8646
▁badger	-8647
▁scrape	-8648
▁connect	-8649
▁meaning	-8650
▁unwrapped	-8651
▁definitely	-8652
Mimi	-8653
inny	-8654
Being	-8655
Looks	-8656
ative	-8657
elope	-8658
▁bomb	-8659
▁Moley	-8660
▁flyer	-8661
▁laces	-8662
▁chalks	-8663
▁cursed	-8664
▁miller	-8665
▁onward	-8666
▁pollen	-8667
▁spaces	-8668
▁anyways	-8669
▁bumping	-8670
▁tiptoes	-8671
▁Ke	-8672
Arrr	-8673
five	-8674
rick	-8675
▁roo	-8676
▁fans	-8677
▁soda	-8678
▁taco	-8679
▁pouch	-8680
▁mashed	-8681
▁passes	-8682
▁cheetah	-8683
▁mailing	-8684
▁scenery	-8685
▁performers	-8686
rily	-8687
acing	-8688
years	-8689
▁cops	-8690
▁swap	-8691
▁booth	-8692
colored	-8693
▁Bobbie	-8694
▁constr	-8695
▁jumper	-8696
▁obeyed	-8697
▁Anytime	-8698
▁anticip	-8699
▁heavily	-8700
▁pecking	-8701
yl	-8702
▁Elle	-8703
▁arre	-8704
▁cafe	-8705
▁knit	-8706
▁attem	-8707
▁affect	-8708
▁hunger	-8709
▁owning	-8710
▁throne	-8711
ordinary	-8712
▁whether	-8713
▁customer	-8714
▁explains	-8715
▁complimented	-8716
▁Tre	-8717
ashes	-8718
▁pose	-8719
▁Felix	-8720
▁erupt	-8721
▁faint	-8722
▁riddle	-8723
▁Missile	-8724
▁cousins	-8725
▁annoying	-8726
▁nightlight	-8727
uum	-8728
ivia	-8729
▁Bri	-8730
▁aid	-8731
flies	-8732
udged	-8733
▁soot	-8734
iments	-8735
▁joins	-8736
▁crawls	-8737
▁vacuum	-8738
▁allowing	-8739
▁expression	-8740
des	-8741
hole	-8742
jack	-8743
▁Pop	-8744
▁Does	-8745
▁charged	-8746
▁service	-8747
▁goodness	-8748
▁ordering	-8749
▁reaction	-8750
.'"	-8751
sers	-8752
Bunny	-8753
▁rods	-8754
solved	-8755
▁Birds	-8756
▁robin	-8757
▁rumbled	-8758
BC	-8759
fus	-8760
ellow	-8761
ulars	-8762
▁Lina	-8763
▁faith	-8764
▁purrs	-8765
▁detect	-8766
inoculars	-8767
▁rewarding	-8768
▁magnifying	-8769
▁recommendation	-8770
▁ABC	-8771
althy	-8772
uries	-8773
▁Ruff	-8774
▁Yawn	-8775
▁leap	-8776
shadow	-8777
▁admit	-8778
▁crushed	-8779
▁example	-8780
▁hardest	-8781
▁humming	-8782
▁binoculars	-8783
▁challenges	-8784
rons	-8785
▁App	-8786
▁dock	-8787
▁jing	-8788
▁Which	-8789
▁chin	-8790
▁gasp	-8791
▁thie	-8792
▁leapt	-8793
▁Ribbit	-8794
▁bathed	-8795
▁embarrassing	-8796
just	-8797
rever	-8798
▁Katy	-8799
▁Rita	-8800
▁hind	-8801
▁ouch	-8802
▁nasty	-8803
▁aprons	-8804
▁cleans	-8805
▁washes	-8806
▁lurking	-8807
▁improving	-8808
▁responded	-8809
ibi	-8810
▁Mole	-8811
▁army	-8812
▁Jumpy	-8813
reverse	-8814
▁forgives	-8815
▁occasion	-8816
▁sneaking	-8817
▁funn	-8818
▁Biggy	-8819
▁Magic	-8820
▁Never	-8821
▁Friend	-8822
▁Seeing	-8823
▁compan	-8824
▁floppy	-8825
▁process	-8826
▁holidays	-8827
▁birthdays	-8828
iri	-8829
Phew	-8830
▁Any	-8831
▁dia	-8832
▁mir	-8833
▁Tess	-8834
▁priv	-8835
▁harmful	-8836
▁rightful	-8837
▁Li	-8838
immy	-8839
▁Bea	-8840
▁Moppy	-8841
▁Clucky	-8842
▁Olivia	-8843
▁devast	-8844
▁raincoats	-8845
rough	-8846
▁Plus	-8847
▁gooey	-8848
▁tanks	-8849
keepers	-8850
▁twenty	-8851
▁writer	-8852
▁carries	-8853
▁disagre	-8854
▁thieves	-8855
▁tickles	-8856
▁compared	-8857
▁sickness	-8858
▁admiration	-8859
▁anticipation	-8860
Ahoy	-8861
▁Scr	-8862
▁Elsa	-8863
▁bond	-8864
▁lapt	-8865
▁meows	-8866
▁Blinky	-8867
▁online	-8868
▁scolds	-8869
▁groaned	-8870
▁desserts	-8871
▁stretches	-8872
▁apologised	-8873
▁devastated	-8874
Make	-8875
ecca	-8876
▁outsm	-8877
Imagine	-8878
▁Louise	-8879
▁checks	-8880
▁reappear	-8881
▁broomstick	-8882
▁disagreeing	-8883
byes	-8884
emon	-8885
iant	-8886
▁Sil	-8887
ousel	-8888
▁owls	-8889
itcher	-8890
▁Peace	-8891
▁quizz	-8892
Playing	-8893
▁chains	-8894
▁common	-8895
▁nearly	-8896
▁details	-8897
▁mysteries	-8898
rap	-8899
Find	-8900
edic	-8901
ispy	-8902
inner	-8903
▁appl	-8904
▁Rufus	-8905
▁clubs	-8906
▁boards	-8907
▁dripped	-8908
▁harvest	-8909
▁neighed	-8910
▁sandpit	-8911
▁shallow	-8912
▁Penelope	-8913
▁goodbyes	-8914
▁sensation	-8915
▁imaginations	-8916
▁extraordinary	-8917
Hop	-8918
Isn	-8919
▁wig	-8920
▁stew	-8921
▁runny	-8922
▁Maddie	-8923
▁surfed	-8924
▁pitcher	-8925
▁carousel	-8926
▁construction	-8927
▁Eva	-8928
▁Bibi	-8929
▁Yoga	-8930
▁drip	-8931
ophone	-8932
▁heels	-8933
▁aisles	-8934
▁laptop	-8935
▁shares	-8936
▁Frankie	-8937
▁attempt	-8938
▁rooster	-8939
▁brightest	-8940
▁underwater	-8941
▁Ty	-8942
Trust	-8943
▁foam	-8944
Shrink	-8945
▁Share	-8946
▁awoke	-8947
▁troll	-8948
▁bounces	-8949
▁sniffled	-8950
▁revealing	-8951
▁lumberjack	-8952
▁skateboard	-8953
▁Ne	-8954
Luna	-8955
▁Phil	-8956
▁tips	-8957
▁Crocod	-8958
▁Dragon	-8959
▁Rainbow	-8960
▁duckies	-8961
▁quizzes	-8962
ooks	-8963
veral	-8964
phones	-8965
▁Flick	-8966
▁carts	-8967
▁snaps	-8968
Friends	-8969
working	-8970
▁juggle	-8971
▁medals	-8972
▁guitars	-8973
▁lizards	-8974
▁several	-8975
▁Startled	-8976
▁companion	-8977
Emma	-8978
owing	-8979
▁bait	-8980
▁hula	-8981
▁Janey	-8982
▁flashed	-8983
▁stroller	-8984
▁Mam	-8985
▁caw	-8986
▁cuc	-8987
Chirp	-8988
Ollie	-8989
▁dears	-8990
▁level	-8991
▁Ashley	-8992
▁pointer	-8993
▁continuing	-8994
▁zookeepers	-8995
ering	-8996
isher	-8997
giving	-8998
▁niece	-8999
▁ruled	-9000
▁parades	-9001
▁although	-9002
▁declared	-9003
▁Lightning	-9004
Che	-9005
acy	-9006
sess	-9007
ality	-9008
check	-9009
▁Math	-9010
▁deck	-9011
▁hoot	-9012
▁awful	-9013
▁pinec	-9014
▁brakes	-9015
▁ironing	-9016
▁deserves	-9017
▁realizes	-9018
▁presented	-9019
▁Wednesdays	-9020
lets	-9021
▁ris	-9022
▁sax	-9023
▁site	-9024
▁Flora	-9025
▁beast	-9026
▁cance	-9027
▁shall	-9028
▁whine	-9029
▁cloths	-9030
▁doggie	-9031
▁flowed	-9032
▁hooves	-9033
▁beaming	-9034
▁spelled	-9035
▁storybook	-9036
yd	-9037
its	-9038
Only	-9039
▁Riri	-9040
▁owns	-9041
▁Bonnie	-9042
▁strips	-9043
▁mindful	-9044
▁protection	-9045
Baa	-9046
▁Life	-9047
▁More	-9048
▁Pine	-9049
▁Brian	-9050
▁based	-9051
▁raked	-9052
▁skinny	-9053
▁surely	-9054
▁painful	-9055
▁seriously	-9056
▁unlocking	-9057
bbly	-9058
▁Har	-9059
▁Eric	-9060
▁bats	-9061
▁prod	-9062
▁reel	-9063
ooking	-9064
▁Amber	-9065
▁tents	-9066
▁sleigh	-9067
▁bandaid	-9068
▁farmers	-9069
▁trotted	-9070
▁injuries	-9071
▁training	-9072
▁necessary	-9073
▁disagreement	-9074
',	-9075
Ball	-9076
mate	-9077
horse	-9078
▁Heli	-9079
▁Bucky	-9080
▁rider	-9081
▁towns	-9082
▁diaper	-9083
▁grumble	-9084
▁applause	-9085
▁cheerfully	-9086
▁separating	-9087
▁slithering	-9088
▁frustration	-9089
▁snug	-9090
▁Right	-9091
▁Tammy	-9092
▁bubbly	-9093
▁inform	-9094
▁Annabelle	-9095
▁promising	-9096
zo	-9097
made	-9098
shirt	-9099
▁barb	-9100
▁Achoo	-9101
▁Patty	-9102
▁chili	-9103
▁fluff	-9104
▁events	-9105
▁thumbs	-9106
▁bending	-9107
▁invites	-9108
▁carefree	-9109
▁lighting	-9110
▁dragonfly	-9111
▁moonlight	-9112
▁scribbled	-9113
vy	-9114
Jane	-9115
vere	-9116
▁Fly	-9117
▁Too	-9118
ushes	-9119
▁Mona	-9120
▁Step	-9121
▁Peggy	-9122
▁Smoke	-9123
▁acrob	-9124
▁Yellow	-9125
▁judged	-9126
▁unless	-9127
▁apology	-9128
▁science	-9129
▁ticking	-9130
▁Tomorrow	-9131
▁servants	-9132
bun	-9133
rit	-9134
Rain	-9135
▁lil	-9136
▁pos	-9137
Sammy	-9138
▁Bozo	-9139
▁Tippy	-9140
▁barbec	-9141
▁Patrick	-9142
▁possess	-9143
▁snorted	-9144
▁Crocodile	-9145
▁kangaroos	-9146
shop	-9147
▁fif	-9148
▁tin	-9149
Molly	-9150
raged	-9151
▁Cook	-9152
▁ding	-9153
▁rack	-9154
▁glows	-9155
▁handy	-9156
▁marve	-9157
▁moons	-9158
▁newly	-9159
▁Bunbun	-9160
▁hippos	-9161
▁sprays	-9162
▁speaker	-9163
▁obstacle	-9164
po	-9165
ivi	-9166
ssy	-9167
▁La	-9168
▁Luc	-9169
▁opt	-9170
▁sus	-9171
Never	-9172
▁host	-9173
uickly	-9174
utions	-9175
▁Hello	-9176
▁trusts	-9177
▁panicking	-9178
▁saxophone	-9179
▁solutions	-9180
▁whimpered	-9181
Car	-9182
aids	-9183
▁Tra	-9184
cloth	-9185
▁nets	-9186
▁unco	-9187
▁Clean	-9188
▁Eliza	-9189
▁unfair	-9190
▁waters	-9191
▁adventurer	-9192
,'	-9193
gar	-9194
ics	-9195
idy	-9196
oint	-9197
▁Mina	-9198
▁adop	-9199
isible	-9200
▁Puffy	-9201
ouraged	-9202
▁bluebird	-9203
▁intelligence	-9204
sn	-9205
match	-9206
▁Sing	-9207
▁scram	-9208
▁ballet	-9209
▁combing	-9210
▁warrior	-9211
▁property	-9212
▁resolved	-9213
▁invisible	-9214
▁protector	-9215
Tree	-9216
▁Col	-9217
▁bas	-9218
▁lim	-9219
ellie	-9220
▁ABCs	-9221
▁date	-9222
▁mats	-9223
▁desks	-9224
▁nations	-9225
▁sincere	-9226
▁tightro	-9227
▁addition	-9228
▁retrieve	-9229
▁successfully	-9230
pop	-9231
▁fade	-9232
▁pads	-9233
cutter	-9234
▁Crane	-9235
▁cooed	-9236
▁Eating	-9237
antastic	-9238
▁capture	-9239
▁threads	-9240
▁stitched	-9241
▁tightrope	-9242
▁emb	-9243
ching	-9244
inted	-9245
▁Worm	-9246
▁fail	-9247
▁Silver	-9248
▁lilies	-9249
▁Otherwise	-9250
▁conflicts	-9251
▁foreshadow	-9252
▁Jet	-9253
▁fet	-9254
▁Duke	-9255
▁Mine	-9256
▁poop	-9257
▁vibr	-9258
▁Close	-9259
▁tippy	-9260
striches	-9261
▁equally	-9262
▁patches	-9263
▁witches	-9264
▁barbecue	-9265
▁includes	-9266
Ice	-9267
▁Ky	-9268
▁Kevin	-9269
▁ashes	-9270
▁chill	-9271
▁dusted	-9272
▁croaked	-9273
▁stretchy	-9274
▁workshop	-9275
▁reversing	-9276
▁Thanksgiving	-9277
▁disappointment	-9278
eat	-9279
▁Set	-9280
▁Cars	-9281
▁Park	-9282
▁tran	-9283
▁Cloud	-9284
▁Whale	-9285
▁wildf	-9286
▁woken	-9287
roccoli	-9288
▁assist	-9289
Everyone	-9290
▁chatter	-9291
▁somehow	-9292
▁textures	-9293
▁experiment	-9294
▁woodcutter	-9295
▁discouraged	-9296
▁Pol	-9297
jesty	-9298
▁calf	-9299
▁trim	-9300
▁Robin	-9301
▁Speed	-9302
▁cords	-9303
▁mayor	-9304
▁postc	-9305
▁sleds	-9306
▁seahorse	-9307
▁snapping	-9308
▁abilities	-9309
Eat	-9310
dog	-9311
Even	-9312
Frog	-9313
hand	-9314
▁god	-9315
Close	-9316
sorry	-9317
urple	-9318
Should	-9319
▁Furry	-9320
▁Horse	-9321
▁misty	-9322
▁scene	-9323
▁liking	-9324
▁portal	-9325
▁boarded	-9326
▁introducing	-9327
emma	-9328
▁Fle	-9329
Bella	-9330
▁Pink	-9331
▁Puff	-9332
▁chews	-9333
▁choke	-9334
▁worst	-9335
▁invent	-9336
▁signal	-9337
▁sleeve	-9338
▁behaviour	-9339
▁scrambled	-9340
▁clothesline	-9341
▁information	-9342
Snow	-9343
gery	-9344
mill	-9345
▁odd	-9346
Ellie	-9347
▁grump	-9348
▁royal	-9349
▁carton	-9350
▁ribbit	-9351
▁guarded	-9352
▁surgery	-9353
▁delaying	-9354
▁Afterward	-9355
▁instantly	-9356
▁scientists	-9357
▁Hi	-9358
affy	-9359
meow	-9360
orth	-9361
▁Bub	-9362
▁lar	-9363
owers	-9364
paste	-9365
▁Joke	-9366
▁cosy	-9367
▁Janet	-9368
▁bowing	-9369
▁injury	-9370
▁caution	-9371
▁pendant	-9372
▁cuddling	-9373
▁swimsuits	-9374
▁travelling	-9375
Rob	-9376
asy	-9377
gain	-9378
rump	-9379
imals	-9380
▁Clown	-9381
▁fixer	-9382
▁boiled	-9383
▁halves	-9384
▁levers	-9385
▁stained	-9386
▁softened	-9387
▁accepting	-9388
▁fantastic	-9389
▁supplying	-9390
▁hesitation	-9391
Mark	-9392
▁peep	-9393
▁unne	-9394
▁Reddy	-9395
▁blush	-9396
▁waggy	-9397
▁Spanish	-9398
▁cartwhe	-9399
▁parking	-9400
▁lectures	-9401
▁toothpaste	-9402
ici	-9403
comb	-9404
that	-9405
▁hob	-9406
Honey	-9407
orsie	-9408
▁adds	-9409
▁rips	-9410
ebecca	-9411
ouched	-9412
▁flock	-9413
▁Woolly	-9414
▁stacks	-9415
▁freeing	-9416
▁puppets	-9417
▁snowing	-9418
▁sunburn	-9419
▁matchbox	-9420
▁chattered	-9421
▁honeycomb	-9422
▁quarrelling	-9423
cr	-9424
bed	-9425
ift	-9426
▁sav	-9427
▁maps	-9428
▁Spicy	-9429
▁Horsie	-9430
smelling	-9431
▁Rebecca	-9432
▁bruises	-9433
▁chugged	-9434
▁seeking	-9435
▁striking	-9436
▁cherished	-9437
▁disobeyed	-9438
▁snowflake	-9439
pan	-9440
▁Ring	-9441
▁Shar	-9442
▁cubs	-9443
istory	-9444
▁Thing	-9445
▁Tyler	-9446
▁shyly	-9447
▁pizzas	-9448
▁Matilda	-9449
▁angrily	-9450
▁halfway	-9451
▁trailer	-9452
▁zigzags	-9453
▁musicians	-9454
ni	-9455
lor	-9456
amil	-9457
iara	-9458
▁Run	-9459
getic	-9460
uster	-9461
▁clim	-9462
▁sizz	-9463
▁disgu	-9464
▁melts	-9465
▁lantern	-9466
▁tugging	-9467
▁finishes	-9468
▁gardening	-9469
▁De	-9470
asha	-9471
▁Eat	-9472
Sweet	-9473
▁Cici	-9474
▁Fort	-9475
▁Play	-9476
▁icky	-9477
▁susp	-9478
▁Cream	-9479
▁Elsie	-9480
▁Mamma	-9481
▁Terry	-9482
▁curse	-9483
▁scowl	-9484
▁Stinky	-9485
▁warmest	-9486
▁acrobats	-9487
▁intently	-9488
▁knitting	-9489
▁luckiest	-9490
▁attaching	-9491
▁performer	-9492
▁Thankfully	-9493
▁experiments	-9494
▁unnecessary	-9495
emy	-9496
res	-9497
issa	-9498
▁Per	-9499
▁Sal	-9500
▁Sir	-9501
anced	-9502
iring	-9503
osure	-9504
▁Cari	-9505
▁lump	-9506
▁poss	-9507
Chirpy	-9508
▁Sasha	-9509
▁blamed	-9510
▁crispy	-9511
▁winding	-9512
▁silverware	-9513
Remy	-9514
asper	-9515
iolet	-9516
▁Boom	-9517
▁laws	-9518
▁Softy	-9519
▁droop	-9520
▁enemy	-9521
▁horri	-9522
▁chicks	-9523
▁hisses	-9524
▁lasers	-9525
▁dirtier	-9526
▁community	-9527
▁exercised	-9528
▁feathered	-9529
▁resisting	-9530
gum	-9531
ror	-9532
ulf	-9533
▁Mae	-9534
▁Jody	-9535
▁Rosa	-9536
▁blond	-9537
▁adjust	-9538
▁narrow	-9539
▁shoots	-9540
▁mustard	-9541
▁concentrate	-9542
Br	-9543
Leo	-9544
▁Ed	-9545
▁Dogs	-9546
▁fuss	-9547
▁Twist	-9548
▁armor	-9549
▁creep	-9550
▁knobs	-9551
▁Ferris	-9552
▁carved	-9553
▁sucked	-9554
▁whoosh	-9555
▁biscuit	-9556
▁climber	-9557
▁cracker	-9558
▁pruning	-9559
▁importantly	-9560
Red	-9561
▁Lu	-9562
▁doves	-9563
▁savor	-9564
▁vests	-9565
amiliar	-9566
▁Oxygen	-9567
▁lasted	-9568
▁oceans	-9569
▁studio	-9570
▁Stripes	-9571
▁hissing	-9572
▁sharpen	-9573
▁sweating	-9574
▁unzipped	-9575
▁sleepover	-9576
▁displaying	-9577
▁Mus	-9578
Mouse	-9579
reeny	-9580
▁encl	-9581
▁pace	-9582
▁Cammy	-9583
▁bends	-9584
▁gasps	-9585
▁hoses	-9586
▁invol	-9587
▁skies	-9588
Nothing	-9589
▁Marley	-9590
▁Slinky	-9591
▁festiv	-9592
▁scores	-9593
▁unwrap	-9594
▁roasted	-9595
▁squeaky	-9596
▁wrinkly	-9597
▁sculptures	-9598
▁unfamiliar	-9599
▁Fortunately	-9600
▁restaurants	-9601
Aw	-9602
att	-9603
awk	-9604
gre	-9605
anna	-9606
▁Fay	-9607
clock	-9608
▁Paula	-9609
▁fences	-9610
▁rinsed	-9611
▁squawk	-9612
▁transp	-9613
▁Blackie	-9614
▁pinecone	-9615
▁suspicious	-9616
▁tablecloth	-9617
▁particularly	-9618
pled	-9619
▁Con	-9620
Ducky	-9621
usion	-9622
▁Lady	-9623
▁Nora	-9624
▁Over	-9625
▁Sale	-9626
illiam	-9627
▁Snake	-9628
▁cluck	-9629
▁palms	-9630
▁keyhole	-9631
▁messier	-9632
▁Reliable	-9633
▁guardian	-9634
▁squashes	-9635
▁bubblegum	-9636
As	-9637
Co	-9638
ka	-9639
cies	-9640
stop	-9641
▁Bar	-9642
▁Ind	-9643
atest	-9644
▁jaws	-9645
▁Pingo	-9646
▁Riley	-9647
▁bless	-9648
▁local	-9649
▁thump	-9650
▁copied	-9651
▁misbeh	-9652
▁motors	-9653
▁sleeps	-9654
▁tempted	-9655
▁tossing	-9656
▁missiles	-9657
▁squeezes	-9658
▁detective	-9659
▁enclosure	-9660
▁obstacles	-9661
▁ostriches	-9662
▁Butterflies	-9663
▁emergencies	-9664
uno	-9665
udge	-9666
▁gri	-9667
▁digs	-9668
▁orch	-9669
▁papa	-9670
rupted	-9671
▁hangs	-9672
▁unzip	-9673
▁Buster	-9674
▁larger	-9675
▁coaster	-9676
▁loyalty	-9677
▁wrappers	-9678
Sun	-9679
ths	-9680
tre	-9681
Jill	-9682
Rock	-9683
wing	-9684
▁baa	-9685
berry	-9686
manda	-9687
▁Bull	-9688
▁dedic	-9689
▁Amanda	-9690
▁Spider	-9691
▁cables	-9692
▁William	-9693
▁catcher	-9694
▁kissing	-9695
▁pistols	-9696
▁arrested	-9697
▁pedaling	-9698
Joe	-9699
imba	-9700
▁sup	-9701
▁Mart	-9702
▁loos	-9703
Butter	-9704
▁Climb	-9705
▁quacks	-9706
▁choking	-9707
▁goodies	-9708
▁hamster	-9709
▁heights	-9710
▁Scissors	-9711
▁managing	-9712
▁restoring	-9713
▁wildflowers	-9714
OO	-9715
Want	-9716
kind	-9717
ruck	-9718
▁Hank	-9719
▁gall	-9720
▁hoof	-9721
Freeze	-9722
lderly	-9723
▁jacks	-9724
▁rinse	-9725
▁tiara	-9726
▁Orange	-9727
▁miracle	-9728
▁spirits	-9729
Surrender	-9730
▁deciding	-9731
▁numbered	-9732
▁flashlights	-9733
▁persistence	-9734
▁Eve	-9735
▁len	-9736
illas	-9737
▁White	-9738
▁gates	-9739
▁grade	-9740
▁ponyt	-9741
▁shots	-9742
▁tacos	-9743
▁tunes	-9744
▁speaks	-9745
▁speedy	-9746
▁kindest	-9747
▁orchard	-9748
▁turkeys	-9749
▁vinegar	-9750
▁wriggled	-9751
this	-9752
fived	-9753
▁Cott	-9754
▁Find	-9755
▁bund	-9756
▁ruff	-9757
friend	-9758
▁Simba	-9759
▁leans	-9760
▁piled	-9761
▁quilt	-9762
▁risky	-9763
▁Stripe	-9764
▁donate	-9765
▁nicest	-9766
▁pearls	-9767
▁razors	-9768
▁resour	-9769
▁Scratch	-9770
▁hideout	-9771
▁pricked	-9772
▁rubbish	-9773
▁greatest	-9774
▁energetic	-9775
▁infection	-9776
▁glimmering	-9777
▁interrupted	-9778
▁Dis	-9779
affle	-9780
▁Jean	-9781
▁Lung	-9782
▁rect	-9783
▁suns	-9784
▁energ	-9785
▁pecks	-9786
ittered	-9787
▁Purple	-9788
▁shaker	-9789
▁sneaks	-9790
▁stings	-9791
▁meetings	-9792
▁squawked	-9793
▁otherwise	-9794
saw	-9795
▁Rh	-9796
ilar	-9797
orky	-9798
peat	-9799
▁Del	-9800
▁Hor	-9801
▁Bees	-9802
▁Race	-9803
▁prog	-9804
▁rags	-9805
repeat	-9806
▁Bruno	-9807
▁Johny	-9808
▁Match	-9809
▁lever	-9810
▁Driver	-9811
▁impact	-9812
▁shields	-9813
▁softest	-9814
▁entering	-9815
▁stomachs	-9816
▁alongside	-9817
▁skeletons	-9818
▁overflowing	-9819
Ring	-9820
bling	-9821
▁Mila	-9822
▁lace	-9823
▁tone	-9824
▁bills	-9825
▁blade	-9826
▁meets	-9827
▁mushy	-9828
▁territ	-9829
▁ladybugs	-9830
▁smoother	-9831
▁glittering	-9832
Two	-9833
whel	-9834
Sleep	-9835
orant	-9836
▁Ever	-9837
▁tale	-9838
▁lumpy	-9839
▁Starry	-9840
▁Animals	-9841
▁command	-9842
▁coconuts	-9843
▁disaster	-9844
▁earthquakes	-9845
▁Of	-9846
Whoa	-9847
ders	-9848
ilot	-9849
munk	-9850
▁Alf	-9851
otato	-9852
▁lamps	-9853
▁peels	-9854
▁sells	-9855
▁blurry	-9856
▁superp	-9857
▁avoided	-9858
▁paramed	-9859
▁snoring	-9860
▁disguise	-9861
▁overwhel	-9862
▁Alligator	-9863
▁conquered	-9864
▁occasions	-9865
▁territory	-9866
▁exploration	-9867
gr	-9868
aly	-9869
Lost	-9870
ugar	-9871
▁alb	-9872
▁awa	-9873
ircle	-9874
upted	-9875
▁Tell	-9876
▁circ	-9877
▁robe	-9878
▁Avery	-9879
▁champ	-9880
▁pokes	-9881
▁racer	-9882
▁sugge	-9883
▁calmer	-9884
▁dialed	-9885
▁frames	-9886
▁salads	-9887
▁banging	-9888
▁erupted	-9889
▁recipes	-9890
▁recital	-9891
▁trumpets	-9892
▁confusion	-9893
▁passenger	-9894
▁suggesting	-9895
bang	-9896
mmed	-9897
▁rent	-9898
▁Berry	-9899
▁Immed	-9900
▁croak	-9901
▁rises	-9902
▁soggy	-9903
▁taxis	-9904
▁fooled	-9905
▁oldest	-9906
▁possib	-9907
▁thrill	-9908
▁wicked	-9909
▁fetched	-9910
▁hurtful	-9911
▁fanciest	-9912
▁squirted	-9913
▁festivals	-9914
▁preventing	-9915
▁Immediately	-9916
like	-9917
▁Smo	-9918
▁gal	-9919
ridge	-9920
▁Cats	-9921
ildren	-9922
▁Hurry	-9923
▁cerem	-9924
▁elders	-9925
▁bullies	-9926
▁harshly	-9927
▁purring	-9928
▁sobbing	-9929
▁chipmunk	-9930
▁hammering	-9931
Deal	-9932
▁Old	-9933
field	-9934
igner	-9935
▁Inky	-9936
▁Jose	-9937
creams	-9938
poison	-9939
▁	-9940
e	-9941
a	-9942
t	-9943
o	-9944
h	-9945
n	-9946
i	-9947
d	-9948
s	-9949
r	-9950
l	-9951
y	-9952
m	-9953
w	-9954
u	-9955
.	-9956
p	-9957
g	-9958
c	-9959
b	-9960
f	-9961
,	-9962
k	-9963
T	-9964
v	-9965
"	-9966
S	-9967
L	-9968
'	-9969
H	-9970
O	-9971
I	-9972
!	-9973
x	-9974
B	-9975
M	-9976
A	-9977
W	-9978
j	-9979
?	-9980
z	-9981
Y	-9982
F	-9983
J	-9984
D	-9985
q	-9986
C	-9987
N	-9988
E	-9989
P	-9990
R	-9991
K	-9992
